{
  "version": "1.0",
  "truncation": null,
  "padding": null,
  "added_tokens": [
    {
      "id": 0,
      "content": "<pad>",
      "single_word": false,
      "lstrip": false,
      "rstrip": false,
      "normalized": false,
      "special": true
    },
    {
      "id": 1,
      "content": "<bos>",
      "single_word": false,
      "lstrip": false,
      "rstrip": false,
      "normalized": false,
      "special": true
    },
    {
      "id": 2,
      "content": "<eos>",
      "single_word": false,
      "lstrip": false,
      "rstrip": false,
      "normalized": false,
      "special": true
    },
    {
      "id": 3,
      "content": "<unk>",
      "single_word": false,
      "lstrip": false,
      "rstrip": false,
      "normalized": false,
      "special": true
    }
  ],
  "normalizer": {
    "type": "NFKC"
  },
  "pre_tokenizer": {
    "type": "ByteLevel",
    "add_prefix_space": false,
    "trim_offsets": true,
    "use_regex": true
  },
  "post_processor": null,
  "decoder": {
    "type": "ByteLevel",
    "add_prefix_space": true,
    "trim_offsets": true,
    "use_regex": true
  },
  "model": {
    "type": "BPE",
    "dropout": null,
    "unk_token": "<unk>",
    "continuing_subword_prefix": null,
    "end_of_word_suffix": null,
    "fuse_unk": false,
    "byte_fallback": false,
    "ignore_merges": false,
    "vocab": {
      "<pad>": 0,
      "<bos>": 1,
      "<eos>": 2,
      "<unk>": 3,
      "!": 4,
      "\"": 5,
      "#": 6,
      "$": 7,
      "%": 8,
      "&": 9,
      "'": 10,
      "(": 11,
      ")": 12,
      "*": 13,
      "+": 14,
      ",": 15,
      "-": 16,
      ".": 17,
      "/": 18,
      "0": 19,
      "1": 20,
      "2": 21,
      "3": 22,
      "4": 23,
      "5": 24,
      "6": 25,
      "7": 26,
      "8": 27,
      "9": 28,
      ":": 29,
      ";": 30,
      "<": 31,
      "=": 32,
      ">": 33,
      "?": 34,
      "@": 35,
      "A": 36,
      "B": 37,
      "C": 38,
      "D": 39,
      "E": 40,
      "F": 41,
      "G": 42,
      "H": 43,
      "I": 44,
      "J": 45,
      "K": 46,
      "L": 47,
      "M": 48,
      "N": 49,
      "O": 50,
      "P": 51,
      "Q": 52,
      "R": 53,
      "S": 54,
      "T": 55,
      "U": 56,
      "V": 57,
      "W": 58,
      "X": 59,
      "Y": 60,
      "Z": 61,
      "[": 62,
      "\\": 63,
      "]": 64,
      "^": 65,
      "_": 66,
      "`": 67,
      "a": 68,
      "b": 69,
      "c": 70,
      "d": 71,
      "e": 72,
      "f": 73,
      "g": 74,
      "h": 75,
      "i": 76,
      "j": 77,
      "k": 78,
      "l": 79,
      "m": 80,
      "n": 81,
      "o": 82,
      "p": 83,
      "q": 84,
      "r": 85,
      "s": 86,
      "t": 87,
      "u": 88,
      "v": 89,
      "w": 90,
      "x": 91,
      "y": 92,
      "z": 93,
      "{": 94,
      "|": 95,
      "}": 96,
      "~": 97,
      "¡": 98,
      "¢": 99,
      "£": 100,
      "¤": 101,
      "¥": 102,
      "¦": 103,
      "§": 104,
      "¨": 105,
      "©": 106,
      "ª": 107,
      "«": 108,
      "¬": 109,
      "®": 110,
      "¯": 111,
      "°": 112,
      "±": 113,
      "²": 114,
      "³": 115,
      "´": 116,
      "µ": 117,
      "¶": 118,
      "·": 119,
      "¸": 120,
      "¹": 121,
      "º": 122,
      "»": 123,
      "¼": 124,
      "½": 125,
      "¾": 126,
      "¿": 127,
      "À": 128,
      "Á": 129,
      "Â": 130,
      "Ã": 131,
      "Ä": 132,
      "Å": 133,
      "Æ": 134,
      "Ç": 135,
      "È": 136,
      "É": 137,
      "Ê": 138,
      "Ë": 139,
      "Ì": 140,
      "Í": 141,
      "Î": 142,
      "Ï": 143,
      "Ð": 144,
      "Ñ": 145,
      "Ò": 146,
      "Ó": 147,
      "Ô": 148,
      "Õ": 149,
      "Ö": 150,
      "×": 151,
      "Ø": 152,
      "Ù": 153,
      "Ú": 154,
      "Û": 155,
      "Ü": 156,
      "Ý": 157,
      "Þ": 158,
      "ß": 159,
      "à": 160,
      "á": 161,
      "â": 162,
      "ã": 163,
      "ä": 164,
      "å": 165,
      "æ": 166,
      "ç": 167,
      "è": 168,
      "é": 169,
      "ê": 170,
      "ë": 171,
      "ì": 172,
      "í": 173,
      "î": 174,
      "ï": 175,
      "ð": 176,
      "ñ": 177,
      "ò": 178,
      "ó": 179,
      "ô": 180,
      "õ": 181,
      "ö": 182,
      "÷": 183,
      "ø": 184,
      "ù": 185,
      "ú": 186,
      "û": 187,
      "ü": 188,
      "ý": 189,
      "þ": 190,
      "ÿ": 191,
      "Ā": 192,
      "ā": 193,
      "Ă": 194,
      "ă": 195,
      "Ą": 196,
      "ą": 197,
      "Ć": 198,
      "ć": 199,
      "Ĉ": 200,
      "ĉ": 201,
      "Ċ": 202,
      "ċ": 203,
      "Č": 204,
      "č": 205,
      "Ď": 206,
      "ď": 207,
      "Đ": 208,
      "đ": 209,
      "Ē": 210,
      "ē": 211,
      "Ĕ": 212,
      "ĕ": 213,
      "Ė": 214,
      "ė": 215,
      "Ę": 216,
      "ę": 217,
      "Ě": 218,
      "ě": 219,
      "Ĝ": 220,
      "ĝ": 221,
      "Ğ": 222,
      "ğ": 223,
      "Ġ": 224,
      "ġ": 225,
      "Ģ": 226,
      "ģ": 227,
      "Ĥ": 228,
      "ĥ": 229,
      "Ħ": 230,
      "ħ": 231,
      "Ĩ": 232,
      "ĩ": 233,
      "Ī": 234,
      "ī": 235,
      "Ĭ": 236,
      "ĭ": 237,
      "Į": 238,
      "į": 239,
      "İ": 240,
      "ı": 241,
      "Ĳ": 242,
      "ĳ": 243,
      "Ĵ": 244,
      "ĵ": 245,
      "Ķ": 246,
      "ķ": 247,
      "ĸ": 248,
      "Ĺ": 249,
      "ĺ": 250,
      "Ļ": 251,
      "ļ": 252,
      "Ľ": 253,
      "ľ": 254,
      "Ŀ": 255,
      "ŀ": 256,
      "Ł": 257,
      "ł": 258,
      "Ń": 259,
      "Ġt": 260,
      "he": 261,
      "Ġa": 262,
      "in": 263,
      "Ġw": 264,
      "Ġthe": 265,
      "ou": 266,
      "re": 267,
      "Ġs": 268,
      "on": 269,
      "ha": 270,
      "er": 271,
      "nd": 272,
      "Ġb": 273,
      "it": 274,
      "is": 275,
      "Ġm": 276,
      "Ġc": 277,
      "Ġo": 278,
      "Ġd": 279,
      "Ġf": 280,
      "ing": 281,
      "Ġto": 282,
      "ll": 283,
      "an": 284,
      "or": 285,
      "ed": 286,
      "Ġy": 287,
      "es": 288,
      "en": 289,
      "Ġp": 290,
      "hat": 291,
      "ar": 292,
      "HI": 293,
      "Ġyou": 294,
      "Ġl": 295,
      "Ġg": 296,
      "CHI": 297,
      "Ġand": 298,
      "Ġof": 299,
      "as": 300,
      "OT": 301,
      "MOT": 302,
      "Ġin": 303,
      "at": 304,
      "om": 305,
      "no": 306,
      "ĠI": 307,
      "Ġhe": 308,
      "Ġh": 309,
      "le": 310,
      "'s": 311,
      "Ġha": 312,
      "ic": 313,
      "ay": 314,
      "et": 315,
      "ve": 316,
      "Ġit": 317,
      "Ġth": 318,
      "Ġon": 319,
      "us": 320,
      "id": 321,
      "gh": 322,
      "Ġthat": 323,
      "Ġbe": 324,
      "al": 325,
      "Ġwas": 326,
      "ld": 327,
      "Ġe": 328,
      "Ġis": 329,
      "ut": 330,
      "ow": 331,
      "oo": 332,
      "Ġno": 333,
      "..": 334,
      "Ġ=": 335,
      "Ġwe": 336,
      "ver": 337,
      "im": 338,
      "ac": 339,
      "ke": 340,
      "ad": 341,
      "Ġn": 342,
      "'t": 343,
      "ri": 344,
      "Ġre": 345,
      "ot": 346,
      "se": 347,
      "ent": 348,
      "Ġfor": 349,
      "ir": 350,
      "ght": 351,
      "ĠS": 352,
      "am": 353,
      "ion": 354,
      "Ġst": 355,
      "ly": 356,
      "ĠM": 357,
      "st": 358,
      "Ġdo": 359,
      "ĠT": 360,
      "Ġu": 361,
      "out": 362,
      "Ġk": 363,
      "ro": 364,
      "ith": 365,
      "Ġme": 366,
      "her": 367,
      "ĠA": 368,
      "ĠC": 369,
      "Ġwith": 370,
      "all": 371,
      "ea": 372,
      "ome": 373,
      "ur": 374,
      "ch": 375,
      "and": 376,
      "Ġan": 377,
      "Ġat": 378,
      "Ġli": 379,
      "Ġas": 380,
      "ter": 381,
      "Ġwh": 382,
      "ill": 383,
      "ĠB": 384,
      "Ġse": 385,
      "ould": 386,
      "Ġgo": 387,
      "Ġnot": 388,
      "ĠH": 389,
      "ce": 390,
      "Ġhave": 391,
      "AT": 392,
      "Ġthis": 393,
      "il": 394,
      "now": 395,
      "xx": 396,
      "FAT": 397,
      "ell": 398,
      "ust": 399,
      "Ġher": 400,
      "...": 401,
      "if": 402,
      "un": 403,
      "ant": 404,
      "ct": 405,
      "Ġhis": 406,
      "Ġare": 407,
      "Ġone": 408,
      "Ġknow": 409,
      "ra": 410,
      "th": 411,
      "op": 412,
      "ĠP": 413,
      "Ġthey": 414,
      "ore": 415,
      "Ġwhat": 416,
      "Ġup": 417,
      "here": 418,
      "Ġsa": 419,
      "Ġshe": 420,
      "Ġne": 421,
      "Ġ1": 422,
      "Ġ\"": 423,
      "ook": 424,
      "um": 425,
      "Ġso": 426,
      "Ġmy": 427,
      "Ġhad": 428,
      "rom": 429,
      "Ġall": 430,
      "Ġj": 431,
      "âĢ": 432,
      "our": 433,
      "Ġdon": 434,
      "Ġcan": 435,
      "hen": 436,
      "ge": 437,
      "pp": 438,
      "ĠW": 439,
      "ie": 440,
      "eah": 441,
      "ĠD": 442,
      "Ġde": 443,
      "Ġthere": 444,
      "ĠR": 445,
      "Ġyour": 446,
      "ry": 447,
      "ain": 448,
      "ul": 449,
      "Ġr": 450,
      "ol": 451,
      "ĠĠ": 452,
      "ack": 453,
      "ood": 454,
      "Ġab": 455,
      "Ġlike": 456,
      "ĠG": 457,
      "ight": 458,
      "Ġout": 459,
      "Ġhim": 460,
      "ĠF": 461,
      "Ġbut": 462,
      "ake": 463,
      "art": 464,
      "Ġfrom": 465,
      "red": 466,
      "Ġal": 467,
      "el": 468,
      "Ġsh": 469,
      "Ġdid": 470,
      "ation": 471,
      "Ġ2": 472,
      "han": 473,
      "ab": 474,
      "very": 475,
      "one": 476,
      "Ġpl": 477,
      "ig": 478,
      "est": 479,
      "The": 480,
      "'re": 481,
      "'m": 482,
      "os": 483,
      "You": 484,
      "em": 485,
      "right": 486,
      "ess": 487,
      "ers": 488,
      "ĠN": 489,
      "what": 490,
      "ink": 491,
      "hi": 492,
      "Ġwere": 493,
      "ist": 494,
      "ĠL": 495,
      "ĠE": 496,
      "Ġget": 497,
      "ound": 498,
      "ĠJ": 499,
      "ame": 500,
      "Ġby": 501,
      "ong": 502,
      "itt": 503,
      "Ġsu": 504,
      "Ġsaid": 505,
      "ck": 506,
      "ind": 507,
      "ther": 508,
      "qu": 509,
      "Ġor": 510,
      "na": 511,
      "Ġwor": 512,
      "res": 513,
      "nt": 514,
      "ĠThe": 515,
      "Ġthem": 516,
      "ast": 517,
      "Ġabout": 518,
      "ive": 519,
      "Ġcom": 520,
      "ber": 521,
      "you": 522,
      "Ġsome": 523,
      "ard": 524,
      "xxx": 525,
      "Ġsp": 526,
      "use": 527,
      "oh": 528,
      "ep": 529,
      "ak": 530,
      "Ġv": 531,
      "own": 532,
      "au": 533,
      "Ġwant": 534,
      "Ġwho": 535,
      "ally": 536,
      "Ġcon": 537,
      "ate": 538,
      "ice": 539,
      "Ġjust": 540,
      "Ġthink": 541,
      "Ġwould": 542,
      "Ġhere": 543,
      "ĠO": 544,
      "yeah": 545,
      "fe": 546,
      "kay": 547,
      "ear": 548,
      "'ll": 549,
      "Ġsee": 550,
      "Ġany": 551,
      "od": 552,
      "ick": 553,
      "ough": 554,
      "ime": 555,
      "Ġman": 556,
      "ap": 557,
      "Ġtw": 558,
      "Ġif": 559,
      "ag": 560,
      "Ġex": 561,
      "Ġwhen": 562,
      "Ġ20": 563,
      "Ġ(": 564,
      "ich": 565,
      "Ġgot": 566,
      "ittle": 567,
      "hing": 568,
      "Ġ19": 569,
      "ort": 570,
      "Ġsay": 571,
      "Ġright": 572,
      "].": 573,
      "Ġlook": 574,
      "Ġus": 575,
      "ven": 576,
      "Ġwill": 577,
      "It": 578,
      "ine": 579,
      "IN": 580,
      "ĠHe": 581,
      "ous": 582,
      "Ġlittle": 583,
      "AR": 584,
      "ide": 585,
      ".\"": 586,
      "ca": 587,
      "to": 588,
      "Ġ[": 589,
      "ost": 590,
      "--": 591,
      "ĠK": 592,
      "Ġag": 593,
      "Ġpro": 594,
      "Ġtoo": 595,
      "int": 596,
      "Ġnow": 597,
      "ies": 598,
      "ity": 599,
      "way": 600,
      "Ġbeen": 601,
      "Ġtime": 602,
      "ite": 603,
      "Ġpe": 604,
      "ĠIt": 605,
      "Ġar": 606,
      "Ġback": 607,
      "Ġxxx": 608,
      "Ġmore": 609,
      "ne": 610,
      "Ġcould": 611,
      "Ġthen": 612,
      "Ġcl": 613,
      "lf": 614,
      "Ġhas": 615,
      "Ġgood": 616,
      "ree": 617,
      "Ġdown": 618,
      "Ġgoing": 619,
      "ace": 620,
      "uh": 621,
      "Ġtwo": 622,
      "ose": 623,
      "Ġtheir": 624,
      "MAR": 625,
      "the": 626,
      "Ġvery": 627,
      "Ġover": 628,
      "are": 629,
      "reat": 630,
      "ish": 631,
      "Ġwhich": 632,
      "He": 633,
      "Ġro": 634,
      "ove": 635,
      "And": 636,
      "ian": 637,
      "Ġoff": 638,
      "end": 639,
      "cause": 640,
      "Ġother": 641,
      "alk": 642,
      "hy": 643,
      "ĠĠĠĠ": 644,
      "Ġaf": 645,
      "Ġtr": 646,
      "ure": 647,
      "that": 648,
      "ĠU": 649,
      "ople": 650,
      "ud": 651,
      "Ġthing": 652,
      "Ġput": 653,
      "oy": 654,
      "other": 655,
      "we": 656,
      "augh": 657,
      "so": 658,
      "ase": 659,
      "ft": 660,
      "Ġbl": 661,
      "Ġqu": 662,
      "ond": 663,
      "ark": 664,
      ",\"": 665,
      "What": 666,
      "ment": 667,
      "omet": 668,
      "ty": 669,
      "ia": 670,
      "hed": 671,
      "orn": 672,
      "INV": 673,
      "'ve": 674,
      "Ġfe": 675,
      "Ġle": 676,
      "Ġhow": 677,
      "pe": 678,
      "Ġpeople": 679,
      "my": 680,
      "irst": 681,
      "ought": 682,
      "onna": 683,
      "ue": 684,
      "ho": 685,
      "Ġbr": 686,
      "urn": 687,
      "ade": 688,
      "ved": 689,
      "ater": 690,
      "ary": 691,
      "Ġinto": 692,
      "Ġcome": 693,
      "Ġgr": 694,
      "Ġplay": 695,
      "yes": 696,
      "Ġmake": 697,
      "Ġcall": 698,
      "ble": 699,
      "age": 700,
      "Ġgonna": 701,
      "ĠSt": 702,
      "Ġway": 703,
      "ass": 704,
      "Ġthan": 705,
      "Ġday": 706,
      "We": 707,
      "ord": 708,
      "Ġer": 709,
      "iss": 710,
      "Ġwork": 711,
      "ving": 712,
      "ci": 713,
      "Ġagain": 714,
      "be": 715,
      "Ġsomet": 716,
      "RO": 717,
      "pl": 718,
      "laugh": 719,
      "ount": 720,
      "Ġtell": 721,
      "Ġ'": 722,
      "Ġmean": 723,
      "okay": 724,
      "oll": 725,
      "Ġfirst": 726,
      "IS": 727,
      "Ġen": 728,
      "ff": 729,
      "ran": 730,
      "ire": 731,
      "Ġwhere": 732,
      "ng": 733,
      "mer": 734,
      "self": 735,
      "Ġafter": 736,
      "ves": 737,
      "Ġthr": 738,
      "Ġwr": 739,
      "Ġam": 740,
      "ather": 741,
      "wn": 742,
      "his": 743,
      "No": 744,
      "Ġtake": 745,
      "ps": 746,
      "Ġpart": 747,
      "Ġbet": 748,
      "pt": 749,
      "per": 750,
      "ĠV": 751,
      "Ġlet": 752,
      "Ġdoes": 753,
      "uch": 754,
      "ach": 755,
      "âĢĻ": 756,
      "Oh": 757,
      "ĠY": 758,
      "Ġyear": 759,
      "Ġgu": 760,
      "Ġdis": 761,
      "ool": 762,
      "Ġneed": 763,
      "Ġdidn": 764,
      "fore": 765,
      "SIS": 766,
      "Ġpr": 767,
      "Ġhapp": 768,
      "thing": 769,
      "ren": 770,
      "Ġevery": 771,
      "laughs": 772,
      "les": 773,
      "Ġonly": 774,
      "ub": 775,
      "Ġun": 776,
      "But": 777,
      "Ġshould": 778,
      "ouse": 779,
      "hm": 780,
      "Ġour": 781,
      "nder": 782,
      "Ġmade": 783,
      "day": 784,
      "Ġsomething": 785,
      "âĢľ": 786,
      "Ġfl": 787,
      "ull": 788,
      "act": 789,
      "Ġmuch": 790,
      "ady": 791,
      "ress": 792,
      "ĠShe": 793,
      "able": 794,
      "That": 795,
      "zz": 796,
      "BRO": 797,
      "te": 798,
      "oss": 799,
      "Ġcha": 800,
      "og": 801,
      "Ġtalk": 802,
      "Ġte": 803,
      "Ġpre": 804,
      "man": 805,
      "Ġlong": 806,
      "ory": 807,
      "Ġ201": 808,
      "ru": 809,
      "Ġcar": 810,
      "Ġwell": 811,
      "Ġco": 812,
      "ting": 813,
      "ied": 814,
      "ions": 815,
      "ated": 816,
      "Ġhand": 817,
      "irl": 818,
      "ang": 819,
      "av": 820,
      "Ġwent": 821,
      "ict": 822,
      "add": 823,
      "Ġthese": 824,
      "Ġchi": 825,
      "ix": 826,
      "Well": 827,
      "Ġthrough": 828,
      "Ġreally": 829,
      "¿½": 830,
      "ï¿½": 831,
      "cc": 832,
      "get": 833,
      "Yeah": 834,
      "Ġim": 835,
      "ile": 836,
      "Ġbefore": 837,
      "Ġcomp": 838,
      "'d": 839,
      "Ġad": 840,
      "Ġbecause": 841,
      "Ġnever": 842,
      "ĠMr": 843,
      "Ġchild": 844,
      "Ġsha": 845,
      "Ġthree": 846,
      "ise": 847,
      "ody": 848,
      "Ġold": 849,
      "Ġpo": 850,
      "Ġbig": 851,
      "Ġcame": 852,
      "anna": 853,
      "where": 854,
      "Ġmo": 855,
      "Ġboy": 856,
      "Ġrem": 857,
      "li": 858,
      "Ġsc": 859,
      "Ġstill": 860,
      "ĠIn": 861,
      "Ġalso": 862,
      "Ġeat": 863,
      "up": 864,
      "Ġgreat": 865,
      "Ġunder": 866,
      "?\"": 867,
      "Ġask": 868,
      "Ġke": 869,
      "ful": 870,
      "Ġaway": 871,
      "Ġsm": 872,
      "Ġhel": 873,
      "cl": 874,
      "uck": 875,
      "So": 876,
      "atch": 877,
      "Ġthought": 878,
      "ence": 879,
      "Ġgirl": 880,
      "Ġeven": 881,
      "ks": 882,
      "ĠUn": 883,
      "ons": 884,
      "ried": 885,
      "ip": 886,
      "Ġapp": 887,
      "ward": 888,
      "do": 889,
      "und": 890,
      "Ġact": 891,
      "nother": 892,
      "Ġhome": 893,
      "iz": 894,
      "Ġlast": 895,
      "Ġnew": 896,
      "Ġper": 897,
      "Ġwanna": 898,
      "Ġname": 899,
      "Ġch": 900,
      "Ġhappen": 901,
      "ect": 902,
      "gg": 903,
      "00": 904,
      "land": 905,
      "Ġbu": 906,
      "Ġmay": 907,
      "UR": 908,
      "ors": 909,
      "ommy": 910,
      "ember": 911,
      "ath": 912,
      "ait": 913,
      "ob": 914,
      "but": 915,
      "âĢĿ": 916,
      "Ġstart": 917,
      "Ġturn": 918,
      "ily": 919,
      "Ġthings": 920,
      "ah": 921,
      "ign": 922,
      "Ġdoing": 923,
      "old": 924,
      "riend": 925,
      "Ġmany": 926,
      "ates": 927,
      "ock": 928,
      "Ġthose": 929,
      "Ġlea": 930,
      "Ġmust": 931,
      "Ġbook": 932,
      "ings": 933,
      "hes": 934,
      "chool": 935,
      "Ġanother": 936,
      "ny": 937,
      "ung": 938,
      "ĠCh": 939,
      "Ġcont": 940,
      "ys": 941,
      "Ġhouse": 942,
      "Ġhelp": 943,
      "Ġmother": 944,
      "ans": 945,
      "Ġser": 946,
      "Ġgive": 947,
      "well": 948,
      "how": 949,
      "ious": 950,
      "ited": 951,
      "ance": 952,
      "aby": 953,
      "xt": 954,
      "Ġfind": 955,
      "Ġcr": 956,
      "Ġhead": 957,
      "lease": 958,
      "air": 959,
      "ars": 960,
      "iv": 961,
      "ave": 962,
      "Ġtry": 963,
      "Ġown": 964,
      "igh": 965,
      "Yes": 966,
      "ĠAnd": 967,
      "ts": 968,
      "Ġnight": 969,
      "pen": 970,
      "rain": 971,
      "Ġwon": 972,
      "Ġsec": 973,
      "oney": 974,
      "rd": 975,
      ".]": 976,
      "Ġcalled": 977,
      "Ġbel": 978,
      "Ġres": 979,
      "She": 980,
      "ail": 981,
      "oc": 982,
      "ĠĠĠĠĠĠĠĠ": 983,
      "Ġkind": 984,
      "Ġshow": 985,
      "ild": 986,
      "Ġyears": 987,
      "URS": 988,
      "aw": 989,
      "ĠChi": 990,
      "Ġchan": 991,
      "Ġfour": 992,
      "Ġlove": 993,
      "ew": 994,
      "Ġfriend": 995,
      "body": 996,
      "Ġ3": 997,
      "huh": 998,
      "Ġfound": 999,
      "ĠMar": 1000,
      "ical": 1001,
      "ert": 1002,
      "Ġel": 1003,
      "Ġdone": 1004,
      "Ġbetter": 1005,
      "aking": 1006,
      "Ġend": 1007,
      "This": 1008,
      "side": 1009,
      "Ġmight": 1010,
      "Ġwhy": 1011,
      "Ġread": 1012,
      "Ġrec": 1013,
      "akes": 1014,
      "In": 1015,
      "Ġche": 1016,
      "ince": 1017,
      "Ġcomm": 1018,
      "ways": 1019,
      "vers": 1020,
      "als": 1021,
      "ER": 1022,
      "Ġbo": 1023,
      "Ġmin": 1024,
      "Ġokay": 1025,
      "ican": 1026,
      "for": 1027,
      "âĢĵ": 1028,
      "Ġsuch": 1029,
      "Ġaround": 1030,
      "They": 1031,
      "Ġfeel": 1032,
      "Ġplace": 1033,
      "Ġsl": 1034,
      "Ġbot": 1035,
      "ina": 1036,
      "Ġmost": 1037,
      "ug": 1038,
      "let": 1039,
      "Ġatt": 1040,
      "Ġbeing": 1041,
      "port": 1042,
      "Ġgl": 1043,
      "ident": 1044,
      "Ġschool": 1045,
      "Ġtold": 1046,
      "Ġroom": 1047,
      "There": 1048,
      "ever": 1049,
      "ces": 1050,
      "Ġcount": 1051,
      "Ġits": 1052,
      "Ġdif": 1053,
      "Ġpres": 1054,
      "ds": 1055,
      "amp": 1056,
      "Ġ202": 1057,
      "Ġsupp": 1058,
      "Ġanything": 1059,
      "rent": 1060,
      "Ġsure": 1061,
      "ee": 1062,
      "Ġfather": 1063,
      "mp": 1064,
      "Ġcare": 1065,
      "Ġcour": 1066,
      "Ġlife": 1067,
      "Ġelse": 1068,
      "Ġdes": 1069,
      "led": 1070,
      "inn": 1071,
      "Ġkeep": 1072,
      "Ġwater": 1073,
      "Ġbeg": 1074,
      "ually": 1075,
      "Ġsil": 1076,
      "why": 1077,
      "Ġnum": 1078,
      "ont": 1079,
      "Ġfin": 1080,
      "mhm": 1081,
      "row": 1082,
      "ction": 1083,
      "ream": 1084,
      "ĠThey": 1085,
      "Ġlot": 1086,
      "Ġever": 1087,
      "Ġnext": 1088,
      "ult": 1089,
      "imes": 1090,
      "ump": 1091,
      "orry": 1092,
      "uc": 1093,
      "ĠYou": 1094,
      "Ġmen": 1095,
      "Ġsame": 1096,
      "Ġear": 1097,
      "ĠAmer": 1098,
      "de": 1099,
      "Ġalways": 1100,
      "!\"": 1101,
      "Ġfive": 1102,
      "ute": 1103,
      "Ġwhile": 1104,
      "Ġbec": 1105,
      "Ġsaw": 1106,
      "ĠBr": 1107,
      "AN": 1108,
      "Ġra": 1109,
      "ations": 1110,
      "Ġtook": 1111,
      "look": 1112,
      "ens": 1113,
      "mber": 1114,
      "ĠBut": 1115,
      "ss": 1116,
      "Ġset": 1117,
      "Ġnice": 1118,
      "Ġpol": 1119,
      "ec": 1120,
      "How": 1121,
      "Ġused": 1122,
      "Ġopen": 1123,
      "rest": 1124,
      "who": 1125,
      "ling": 1126,
      "ye": 1127,
      "ition": 1128,
      "Ġseem": 1129,
      "this": 1130,
      "HE": 1131,
      "can": 1132,
      "ï¿½ï¿½": 1133,
      "Ġdoesn": 1134,
      "ms": 1135,
      "Ġbaby": 1136,
      "Ġwom": 1137,
      "If": 1138,
      "they": 1139,
      "Ġbre": 1140,
      "Ġleft": 1141,
      "Ġfam": 1142,
      "Ġbus": 1143,
      "Ġpie": 1144,
      "vent": 1145,
      "Ġyeah": 1146,
      "ister": 1147,
      "Ġsw": 1148,
      "oot": 1149,
      "Ġpret": 1150,
      "Ġmag": 1151,
      "Ġrun": 1152,
      "ational": 1153,
      "Ġwait": 1154,
      "Ġmon": 1155,
      "ounds": 1156,
      "vel": 1157,
      "Why": 1158,
      "tern": 1159,
      "ret": 1160,
      "Ġsix": 1161,
      "Ġum": 1162,
      "outh": 1163,
      "Ġstop": 1164,
      "Ġdr": 1165,
      "Ġfar": 1166,
      "Ġunt": 1167,
      "Do": 1168,
      "gether": 1169,
      "ished": 1170,
      "Ġworld": 1171,
      "Ġ.": 1172,
      "Ġele": 1173,
      "Ġreal": 1174,
      "CO": 1175,
      "undred": 1176,
      "cle": 1177,
      "aught": 1178,
      "Ġfun": 1179,
      "Ġuse": 1180,
      "Ġcle": 1181,
      "ĠUnited": 1182,
      "ries": 1183,
      "Ġhard": 1184,
      "Ġnumber": 1185,
      "Ġmoney": 1186,
      "Ġkne": 1187,
      "Ġhundred": 1188,
      "Ġsing": 1189,
      "usic": 1190,
      "Ġdiffe": 1191,
      "oun": 1192,
      "Ġph": 1193,
      "Ġwar": 1194,
      "Ġmom": 1195,
      "ness": 1196,
      "gr": 1197,
      "ellow": 1198,
      "Ġbelie": 1199,
      "Ġstay": 1200,
      "she": 1201,
      "ins": 1202,
      "ope": 1203,
      "Ġob": 1204,
      "Ġwee": 1205,
      "there": 1206,
      "ower": 1207,
      "Ġmar": 1208,
      "pect": 1209,
      "erson": 1210,
      "ĠKing": 1211,
      "Ġacc": 1212,
      "Ġstick": 1213,
      "Ġ200": 1214,
      "Ġret": 1215,
      "Ġblack": 1216,
      "Ġgi": 1217,
      "ger": 1218,
      "ween": 1219,
      "hank": 1220,
      "ES": 1221,
      "Ġknown": 1222,
      "anc": 1223,
      "Chi": 1224,
      "me": 1225,
      "Ġtogether": 1226,
      "leep": 1227,
      "Ġac": 1228,
      "Ġhappened": 1229,
      "ets": 1230,
      "Ġenough": 1231,
      "Ġcourse": 1232,
      "Ġbir": 1233,
      "ton": 1234,
      "leas": 1235,
      "rist": 1236,
      "Ġsays": 1237,
      "ĠMark": 1238,
      "ial": 1239,
      "ta": 1240,
      "Ġupon": 1241,
      "Ġhear": 1242,
      "LD": 1243,
      "Ġuntil": 1244,
      "Ġdog": 1245,
      "orning": 1246,
      "Ġdied": 1247,
      "ĠNew": 1248,
      "Ġyoung": 1249,
      "ĠEng": 1250,
      "Ġsecond": 1251,
      "io": 1252,
      "rew": 1253,
      "Ġbest": 1254,
      "ph": 1255,
      "Ġnothing": 1256,
      "Ġcol": 1257,
      "tle": 1258,
      "Ġthough": 1259,
      "Ġsilver": 1260,
      "did": 1261,
      "Ġbad": 1262,
      "fta": 1263,
      "Ġwalk": 1264,
      "Ġasked": 1265,
      "Ġbetween": 1266,
      "Ġsur": 1267,
      "not": 1268,
      "Ġyes": 1269,
      "az": 1270,
      "ĠDe": 1271,
      "see": 1272,
      "ib": 1273,
      "eak": 1274,
      "Ġeyes": 1275,
      "Ġquite": 1276,
      "ubl": 1277,
      "ible": 1278,
      "Ġremember": 1279,
      "oup": 1280,
      "Ġmat": 1281,
      "Ġhimself": 1282,
      "Now": 1283,
      "Ġchildren": 1284,
      "ĠAmerican": 1285,
      "Ġdoor": 1286,
      "\".": 1287,
      "uff": 1288,
      "mb": 1289,
      "Ġstand": 1290,
      "Ġhafta": 1291,
      "ject": 1292,
      "Ġchar": 1293,
      "ĠCha": 1294,
      "Ġside": 1295,
      "Ġbit": 1296,
      "Ġmorning": 1297,
      "Ġfall": 1298,
      "uring": 1299,
      "Ġvo": 1300,
      "Ġbed": 1301,
      "Ġ4": 1302,
      "Ġball": 1303,
      "ired": 1304,
      "ures": 1305,
      "Ġhold": 1306,
      "Ġrel": 1307,
      "Ġplease": 1308,
      "Ġpoint": 1309,
      "aut": 1310,
      "Ġlight": 1311,
      "ĠFran": 1312,
      "ĠAr": 1313,
      "EL": 1314,
      "ale": 1315,
      "Okay": 1316,
      "Ġsit": 1317,
      "put": 1318,
      "any": 1319,
      "Ġkill": 1320,
      "Ġwanted": 1321,
      "then": 1322,
      "Ġsorry": 1323,
      "Ġdist": 1324,
      "Ġlist": 1325,
      "ollow": 1326,
      "ents": 1327,
      "ĠMiss": 1328,
      "Ġpass": 1329,
      "ched": 1330,
      "med": 1331,
      "ork": 1332,
      "Ġpick": 1333,
      "Ġseen": 1334,
      "Ġagainst": 1335,
      "All": 1336,
      "Ġcoming": 1337,
      "une": 1338,
      "Ġfew": 1339,
      "ĠAn": 1340,
      "ten": 1341,
      "vie": 1342,
      "Ġknew": 1343,
      "Ġboth": 1344,
      "ged": 1345,
      "enc": 1346,
      "Ġface": 1347,
      "addy": 1348,
      "Ġ_": 1349,
      "Ġsmall": 1350,
      "Ġwithout": 1351,
      "Ġheard": 1352,
      "Ġonce": 1353,
      "Ġmind": 1354,
      "ex": 1355,
      "ross": 1356,
      "Ġ18": 1357,
      "Ġborn": 1358,
      "ters": 1359,
      "iet": 1360,
      "ohn": 1361,
      "Ġbase": 1362,
      "ape": 1363,
      "Ġstory": 1364,
      "Ġmil": 1365,
      "Ġent": 1366,
      "cha": 1367,
      "Don": 1368,
      "most": 1369,
      "Ġisn": 1370,
      "ĠStates": 1371,
      "ĠAl": 1372,
      "Ġlooking": 1373,
      "Ġdifferent": 1374,
      "ning": 1375,
      "Ġhur": 1376,
      "Ġtop": 1377,
      "),": 1378,
      "ics": 1379,
      "Ġeach": 1380,
      "ctor": 1381,
      "enty": 1382,
      "ING": 1383,
      "ĠJan": 1384,
      "wh": 1385,
      "ffe": 1386,
      "oint": 1387,
      "Ġreg": 1388,
      "Ġstud": 1389,
      "Ġter": 1390,
      "raw": 1391,
      "oud": 1392,
      "mm": 1393,
      "aper": 1394,
      "Ġleave": 1395,
      "Ġstr": 1396,
      "Ġcons": 1397,
      "Ġ199": 1398,
      "Ġheart": 1399,
      "ener": 1400,
      "Ġtoday": 1401,
      "ier": 1402,
      "Is": 1403,
      "Ġbro": 1404,
      "My": 1405,
      "Ġsong": 1406,
      "ank": 1407,
      "ĠThis": 1408,
      "Ġyet": 1409,
      "Ġmet": 1410,
      "Ġhung": 1411,
      "Ġdec": 1412,
      "Ġlater": 1413,
      "Ġrest": 1414,
      "stand": 1415,
      "Ġlooked": 1416,
      "Ġkid": 1417,
      "Ġwhole": 1418,
      "ason": 1419,
      "ĠMrs": 1420,
      "less": 1421,
      "Ġeight": 1422,
      "reen": 1423,
      "Ġgetting": 1424,
      "orth": 1425,
      "cial": 1426,
      "Ġtable": 1427,
      "Ġuh": 1428,
      "ating": 1429,
      "Ġdri": 1430,
      "ular": 1431,
      "Ġpretty": 1432,
      "pr": 1433,
      "Ġtalking": 1434,
      "ife": 1435,
      "Ġnear": 1436,
      "Ġwatch": 1437,
      "Ġeverything": 1438,
      "Ġperson": 1439,
      "Ġfr": 1440,
      "Ġhands": 1441,
      "Ġgave": 1442,
      "Ġhat": 1443,
      "its": 1444,
      "Ġcity": 1445,
      "Ġsoon": 1446,
      "Ġinv": 1447,
      "ĠSo": 1448,
      "come": 1449,
      "Ġate": 1450,
      "Ġhuh": 1451,
      "ĠZ": 1452,
      "Ġmagn": 1453,
      "ames": 1454,
      "Ġsk": 1455,
      "Ġfollow": 1456,
      "uss": 1457,
      "zzz": 1458,
      "go": 1459,
      "ready": 1460,
      "ably": 1461,
      "sh": 1462,
      "onder": 1463,
      "Ġfamily": 1464,
      "Ġwasn": 1465,
      "ĠTh": 1466,
      "hip": 1467,
      "Ġfood": 1468,
      "Ġhigh": 1469,
      "Ġsleep": 1470,
      "Ġ5": 1471,
      "ĠWe": 1472,
      "ĠWhat": 1473,
      "Ġdays": 1474,
      "co": 1475,
      "ney": 1476,
      "OU": 1477,
      "ertain": 1478,
      "ision": 1479,
      "Ġhaving": 1480,
      "Ġred": 1481,
      "br": 1482,
      "Ġsent": 1483,
      "Ġans": 1484,
      ").": 1485,
      "der": 1486,
      "ĠInd": 1487,
      "Ġair": 1488,
      "don": 1489,
      "Ġhalf": 1490,
      "Ġbeaut": 1491,
      "Ġsince": 1492,
      "Ġtown": 1493,
      "Ġbelieve": 1494,
      "la": 1495,
      "ines": 1496,
      "osed": 1497,
      "Ġwind": 1498,
      "vern": 1499,
      "aster": 1500,
      "Let": 1501,
      "ĠNo": 1502,
      "Ġgirls": 1503,
      "ball": 1504,
      "Hey": 1505,
      "Ġpict": 1506,
      "ĠIs": 1507,
      "oor": 1508,
      "pped": 1509,
      "ĠâĢĵ": 1510,
      "Ġgoes": 1511,
      "Ġmeet": 1512,
      "Ġinst": 1513,
      "Ġfire": 1514,
      "Come": 1515,
      "Ġshall": 1516,
      "St": 1517,
      "Ġwrite": 1518,
      "Ġround": 1519,
      "den": 1520,
      "ash": 1521,
      "ĠChrist": 1522,
      "Ġvoice": 1523,
      "Not": 1524,
      "iness": 1525,
      "arah": 1526,
      "Ġstarted": 1527,
      "ike": 1528,
      "Ġlive": 1529,
      "wo": 1530,
      "Ġmove": 1531,
      "LO": 1532,
      "Ġri": 1533,
      "ĠAs": 1534,
      "part": 1535,
      "Ġgone": 1536,
      "Ġquest": 1537,
      "Ġind": 1538,
      "sel": 1539,
      "ĠEd": 1540,
      "Ġspo": 1541,
      "eng": 1542,
      "Ġword": 1543,
      "Ġpop": 1544,
      "cept": 1545,
      "ĠBe": 1546,
      "Ġcat": 1547,
      "Ġtri": 1548,
      "uth": 1549,
      "orrow": 1550,
      "dam": 1551,
      "Ġalready": 1552,
      "elt": 1553,
      "Ġbrother": 1554,
      "Ġlo": 1555,
      "aj": 1556,
      "Ġthir": 1557,
      "ĠRe": 1558,
      "Be": 1559,
      "Ġanim": 1560,
      "ither": 1561,
      "Ġhour": 1562,
      "ounc": 1563,
      "Ġbring": 1564,
      "Ġsaying": 1565,
      "Ġdoll": 1566,
      "ully": 1567,
      "ual": 1568,
      "Ġplan": 1569,
      "Ġca": 1570,
      "Ġid": 1571,
      "Ġsy": 1572,
      "Ġdire": 1573,
      "ĠJohn": 1574,
      "ised": 1575,
      "ĠThere": 1576,
      "cted": 1577,
      "Ġson": 1578,
      "Ġ198": 1579,
      "Ġtrain": 1580,
      "Ġfif": 1581,
      "ery": 1582,
      "ote": 1583,
      "fter": 1584,
      "lish": 1585,
      "Ġhungry": 1586,
      "ĠGod": 1587,
      "Ġcap": 1588,
      "Ġwrong": 1589,
      "aid": 1590,
      "Ġmaking": 1591,
      "Ġhor": 1592,
      "aken": 1593,
      "Ġcountry": 1594,
      "Mommy": 1595,
      "ustr": 1596,
      "iful": 1597,
      "ern": 1598,
      "Ġready": 1599,
      "Ġdrink": 1600,
      "On": 1601,
      "COL": 1602,
      "ivers": 1603,
      "app": 1604,
      "ĠâĢľ": 1605,
      "wer": 1606,
      "clud": 1607,
      "Ġbuild": 1608,
      "Ġunderstand": 1609,
      "ĠPr": 1610,
      "Ġpiece": 1611,
      "wards": 1612,
      "ison": 1613,
      "Ġdat": 1614,
      "UN": 1615,
      "Ġalong": 1616,
      "Ġerm": 1617,
      "Ġdear": 1618,
      "Ġtrying": 1619,
      "Ġbreak": 1620,
      "Ġfriends": 1621,
      "Ġwonder": 1622,
      "Ġfight": 1623,
      "Ġcent": 1624,
      "Ġlar": 1625,
      "Ġmeans": 1626,
      "When": 1627,
      "ues": 1628,
      "ax": 1629,
      "Ġsound": 1630,
      "ĠMommy": 1631,
      "ober": 1632,
      "ered": 1633,
      "Ġalmost": 1634,
      "Ġimp": 1635,
      "Ġbecame": 1636,
      "Ġreturn": 1637,
      "Ġsub": 1638,
      "aces": 1639,
      "ĠRoss": 1640,
      "eth": 1641,
      "Ġcut": 1642,
      "Ġland": 1643,
      "Ġfoot": 1644,
      "Ġhot": 1645,
      "Ã©": 1646,
      "ities": 1647,
      "19": 1648,
      "Ġbas": 1649,
      "\",": 1650,
      "aul": 1651,
      "ĠSc": 1652,
      "ĠGer": 1653,
      "Ġsort": 1654,
      "ped": 1655,
      "Ġeas": 1656,
      "Ġmiss": 1657,
      "omm": 1658,
      "Just": 1659,
      "Ġage": 1660,
      "Ġlaugh": 1661,
      "Ġgame": 1662,
      "ury": 1663,
      "Ġbegan": 1664,
      "ield": 1665,
      "ative": 1666,
      "Ġwoman": 1667,
      "by": 1668,
      "Ġwouldn": 1669,
      "alright": 1670,
      "Ġ7": 1671,
      "cess": 1672,
      "Ġtra": 1673,
      "Ġwhe": 1674,
      "Ġpaper": 1675,
      "Ġmoment": 1676,
      "Ġ6": 1677,
      "aint": 1678,
      "isit": 1679,
      "unt": 1680,
      "eb": 1681,
      "ows": 1682,
      "Ġjo": 1683,
      "Ġlead": 1684,
      "âĢĺ": 1685,
      "EN": 1686,
      "ric": 1687,
      "Ġ8": 1688,
      "Ġguy": 1689,
      "ush": 1690,
      "ĠSp": 1691,
      "ined": 1692,
      "Ġinte": 1693,
      "orm": 1694,
      ".âĢĿ": 1695,
      "ony": 1696,
      "du": 1697,
      "Ġtre": 1698,
      "aybe": 1699,
      "Ġtwenty": 1700,
      "Ġadd": 1701,
      "Ġidea": 1702,
      "Ġdeath": 1703,
      "ital": 1704,
      "Ġref": 1705,
      "ants": 1706,
      "Ġspeak": 1707,
      "ken": 1708,
      "Ġrep": 1709,
      "Look": 1710,
      "Ġfore": 1711,
      "Ġguys": 1712,
      "Ġactually": 1713,
      "ĠTHE": 1714,
      "Ġ197": 1715,
      "rop": 1716,
      "uhhuh": 1717,
      "Ġguess": 1718,
      "Ġproble": 1719,
      "rog": 1720,
      "bably": 1721,
      "rs": 1722,
      "ÃŃ": 1723,
      "Ġint": 1724,
      "Ġprom": 1725,
      "Ġwhite": 1726,
      "Ġparty": 1727,
      "Ġass": 1728,
      "Ġlost": 1729,
      "Ġstuff": 1730,
      "Ġten": 1731,
      "ene": 1732,
      "Ġhum": 1733,
      "Ġturned": 1734,
      "Ġsign": 1735,
      "Ġposs": 1736,
      "Ġbeautiful": 1737,
      "Ġphone": 1738,
      "reet": 1739,
      "Ġpresent": 1740,
      "AI": 1741,
      "ages": 1742,
      "Ġrecord": 1743,
      "Then": 1744,
      "Ġtele": 1745,
      "Ġfine": 1746,
      "Ġyellow": 1747,
      "ring": 1748,
      "ept": 1749,
      "Ġlooks": 1750,
      "Ġbrought": 1751,
      "Ġcertain": 1752,
      "Ġpubl": 1753,
      "ĠMot": 1754,
      "Ġwords": 1755,
      "Ġduring": 1756,
      "olly": 1757,
      "ON": 1758,
      "Ġtimes": 1759,
      "ĠCount": 1760,
      "Ġinterest": 1761,
      "eter": 1762,
      "Ġconf": 1763,
      "Ġcoll": 1764,
      "kes": 1765,
      "Ġfact": 1766,
      "Ġlear": 1767,
      "ster": 1768,
      "hey": 1769,
      "Ġcomes": 1770,
      "Ġ9": 1771,
      "Ġaw": 1772,
      "ouble": 1773,
      "Ġpolit": 1774,
      "ouch": 1775,
      "Ġsun": 1776,
      "urs": 1777,
      "unch": 1778,
      "ĠĠĠĠĠĠĠĠĠĠĠĠĠĠĠĠ": 1779,
      "Ġmonth": 1780,
      "ĠEnglish": 1781,
      "ey": 1782,
      "Ġplayed": 1783,
      "Ġteam": 1784,
      "Ġmusic": 1785,
      "Ġexc": 1786,
      "Ġweek": 1787,
      "Where": 1788,
      "Ġoh": 1789,
      "ief": 1790,
      "NA": 1791,
      "GLO": 1792,
      "Ġfull": 1793,
      "Ġboys": 1794,
      "ying": 1795,
      "Ġpay": 1796,
      "ists": 1797,
      "Ġplaying": 1798,
      "Are": 1799,
      "Ġi": 1800,
      "ared": 1801,
      "Ġwand": 1802,
      "Ġtaken": 1803,
      "Ġsister": 1804,
      "Ġhappy": 1805,
      ",âĢĿ": 1806,
      "Ġjob": 1807,
      "âĢĶ": 1808,
      "Thank": 1809,
      "leased": 1810,
      "ama": 1811,
      "Ġdel": 1812,
      "Ġclose": 1813,
      "Ġbear": 1814,
      "Ġable": 1815,
      "Who": 1816,
      "ĠFor": 1817,
      "Did": 1818,
      "Ġmatter": 1819,
      "ead": 1820,
      "Ġmovie": 1821,
      "hil": 1822,
      "ese": 1823,
      "airs": 1824,
      "ĠAt": 1825,
      "read": 1826,
      "Ġrock": 1827,
      "Ġhope": 1828,
      "fully": 1829,
      "Ġinclud": 1830,
      "Th": 1831,
      "key": 1832,
      "Ġbox": 1833,
      "ĠFl": 1834,
      "ned": 1835,
      "ze": 1836,
      "MEL": 1837,
      "Ġlisten": 1838,
      "Ġwrit": 1839,
      "amed": 1840,
      "----": 1841,
      "got": 1842,
      "Ġfell": 1843,
      "ats": 1844,
      "Ġext": 1845,
      "Ġminute": 1846,
      "Ġking": 1847,
      "gan": 1848,
      "more": 1849,
      "Ġthank": 1850,
      "Ġdisc": 1851,
      "room": 1852,
      "Ġinc": 1853,
      "tain": 1854,
      "icha": 1855,
      "ming": 1856,
      "Ġmed": 1857,
      "Ġdress": 1858,
      "Ġmagnet": 1859,
      "Ġfelt": 1860,
      "Ġherself": 1861,
      "ĠGr": 1862,
      "Ġpoor": 1863,
      "ple": 1864,
      "uary": 1865,
      "Ġcir": 1866,
      "Ġlaw": 1867,
      "Ġdead": 1868,
      "hind": 1869,
      "Ġart": 1870,
      "men": 1871,
      "ĠQ": 1872,
      "Ġegg": 1873,
      "umb": 1874,
      "Ġmyself": 1875,
      "olog": 1876,
      "Ġwants": 1877,
      "Ġsat": 1878,
      "ided": 1879,
      "Ġseemed": 1880,
      "utes": 1881,
      "ole": 1882,
      "just": 1883,
      "ises": 1884,
      "idd": 1885,
      "Ġletter": 1886,
      "ĠCl": 1887,
      "used": 1888,
      "Can": 1889,
      "Ġsim": 1890,
      "like": 1891,
      "Ġcontin": 1892,
      "Ġ196": 1893,
      "ner": 1894,
      "Ġlate": 1895,
      "Ġinter": 1896,
      "Ġago": 1897,
      "rench": 1898,
      "Ġspe": 1899,
      "Ġpounds": 1900,
      "eptember": 1901,
      "Ġcouldn": 1902,
      "Ġbar": 1903,
      "Ġmakes": 1904,
      "son": 1905,
      "Ġmaybe": 1906,
      "bum": 1907,
      "rying": 1908,
      "ĠAp": 1909,
      "Ġblue": 1910,
      "Ġsomeone": 1911,
      "Ġgener": 1912,
      "Ġoffic": 1913,
      "selves": 1914,
      "Ġgotta": 1915,
      "ĠThat": 1916,
      "Ġ10": 1917,
      "oub": 1918,
      "Ġleg": 1919,
      "haps": 1920,
      "ific": 1921,
      "Ġ,": 1922,
      "Ġhair": 1923,
      "bb": 1924,
      "Ġsir": 1925,
      "itc": 1926,
      "Ġlived": 1927,
      "Ġrather": 1928,
      "ousand": 1929,
      "ator": 1930,
      "Ġloc": 1931,
      "ution": 1932,
      "ĠAll": 1933,
      "inner": 1934,
      "Right": 1935,
      "Ġpri": 1936,
      "ides": 1937,
      "ĠCar": 1938,
      "sp": 1939,
      "head": 1940,
      "Ġfront": 1941,
      "gin": 1942,
      "born": 1943,
      "Ġgovern": 1944,
      "Ġbusiness": 1945,
      "Ġfloor": 1946,
      "ians": 1947,
      "Ġstrong": 1948,
      "bo": 1949,
      "Ġstate": 1950,
      "Er": 1951,
      "itting": 1952,
      "ĠHer": 1953,
      "OR": 1954,
      "Ġbehind": 1955,
      "Ġquestion": 1956,
      "Ġcup": 1957,
      "Ġimport": 1958,
      "Ġless": 1959,
      "ĠThen": 1960,
      "ments": 1961,
      "Ġwomen": 1962,
      "oes": 1963,
      "Ġev": 1964,
      "Ġste": 1965,
      "Ġminutes": 1966,
      "ĠSeptember": 1967,
      "iversity": 1968,
      "ĠGerman": 1969,
      "ati": 1970,
      "Ġshort": 1971,
      "ize": 1972,
      "ured": 1973,
      "ĠCounty": 1974,
      "ald": 1975,
      "ĠFrance": 1976,
      "Ġswe": 1977,
      "ĠHis": 1978,
      "ized": 1979,
      "sing": 1980,
      "Ġthousand": 1981,
      "Ġgreen": 1982,
      "Ġdeal": 1983,
      "Ġed": 1984,
      "ĠBl": 1985,
      "Ġprobably": 1986,
      "ik": 1987,
      "fect": 1988,
      "uro": 1989,
      "ĠJanuary": 1990,
      "Ġchair": 1991,
      "ford": 1992,
      "ense": 1993,
      "Ġseven": 1994,
      "een": 1995,
      "Ġwood": 1996,
      "Ġclear": 1997,
      "pill": 1998,
      "Ġalone": 1999,
      "ril": 2000,
      "Ġcase": 2001,
      "Ġoutside": 2002,
      "ĠCan": 2003,
      "atur": 2004,
      "ones": 2005,
      "Ġhaven": 2006,
      "Ġbirth": 2007,
      "ention": 2008,
      "Ġ2022": 2009,
      "Ġ194": 2010,
      "uly": 2011,
      "Ġcur": 2012,
      "Ġran": 2013,
      "Ġserv": 2014,
      "As": 2015,
      "ham": 2016,
      "Ġcolor": 2017,
      "Ġes": 2018,
      "ley": 2019,
      "Ġtrue": 2020,
      "ety": 2021,
      "Ġtape": 2022,
      "Good": 2023,
      "Ġquick": 2024,
      "Ġinside": 2025,
      "ism": 2026,
      "ĠHow": 2027,
      "Ġalbum": 2028,
      "At": 2029,
      "morrow": 2030,
      "Ġcook": 2031,
      "Ġlady": 2032,
      "RI": 2033,
      "ane": 2034,
      "Ġmine": 2035,
      "ugust": 2036,
      "aterpill": 2037,
      "aughter": 2038,
      "Ġfrog": 2039,
      "Ġlay": 2040,
      "ĠSarah": 2041,
      "ider": 2042,
      "Ġcreat": 2043,
      "els": 2044,
      "Ġmilk": 2045,
      "yep": 2046,
      "CHILD": 2047,
      "ĠBrit": 2048,
      "rian": 2049,
      "Ġpower": 2050,
      "ĠOn": 2051,
      "Ġpar": 2052,
      "ears": 2053,
      "AL": 2054,
      "Ġsqu": 2055,
      "erv": 2056,
      "Ġ195": 2057,
      "Ġroad": 2058,
      "Ġyourself": 2059,
      "Ġexpl": 2060,
      "gy": 2061,
      "Ġhon": 2062,
      "arent": 2063,
      "orld": 2064,
      "range": 2065,
      "Ġchange": 2066,
      "oth": 2067,
      "Ġpicture": 2068,
      "because": 2069,
      "erc": 2070,
      "rap": 2071,
      "Ġwin": 2072,
      "Al": 2073,
      "Ġpull": 2074,
      "rit": 2075,
      "20": 2076,
      "ches": 2077,
      "Ġgiven": 2078,
      "Ġoften": 2079,
      "ĠMay": 2080,
      "when": 2081,
      "Ġdark": 2082,
      "Ġgrand": 2083,
      "ĠMarch": 2084,
      "lo": 2085,
      "Ġtaking": 2086,
      "Ġmark": 2087,
      "Ġwish": 2088,
      "Ġdream": 2089,
      "Ġones": 2090,
      "form": 2091,
      "Ġfifty": 2092,
      "Ġarea": 2093,
      "ĠYork": 2094,
      "ilt": 2095,
      "Ġprot": 2096,
      "angu": 2097,
      "GAI": 2098,
      "che": 2099,
      "ĠOh": 2100,
      "ĠPar": 2101,
      "ked": 2102,
      "Ġprof": 2103,
      "Ġhurt": 2104,
      "Ġwife": 2105,
      "Ġchildes": 2106,
      "CHILDES": 2107,
      "ĠWill": 2108,
      "Ġsal": 2109,
      "iously": 2110,
      "ma": 2111,
      "ott": 2112,
      "Ġhist": 2113,
      "Ġfeet": 2114,
      "aterpillar": 2115,
      "Ġbody": 2116,
      "Ġtrans": 2117,
      "good": 2118,
      "enn": 2119,
      "Ġfunny": 2120,
      "GR": 2121,
      "bs": 2122,
      "point": 2123,
      "ipp": 2124,
      "ctober": 2125,
      "For": 2126,
      "Mom": 2127,
      "Ġem": 2128,
      "Go": 2129,
      "rey": 2130,
      "cent": 2131,
      "Ġfav": 2132,
      "ices": 2133,
      "aur": 2134,
      "Ġworking": 2135,
      "fort": 2136,
      "eor": 2137,
      "ĠAugust": 2138,
      "iam": 2139,
      "Ġliving": 2140,
      "icip": 2141,
      "Ġmill": 2142,
      "Ġleast": 2143,
      "Ġnamed": 2144,
      "Ġform": 2145,
      "Ġtried": 2146,
      "ĠPhil": 2147,
      "rem": 2148,
      "ĠFrench": 2149,
      "rence": 2150,
      "Ġcold": 2151,
      "fl": 2152,
      "Ġlarge": 2153,
      "ls": 2154,
      "ĠAdam": 2155,
      "ained": 2156,
      "ĠFr": 2157,
      "ara": 2158,
      "ummer": 2159,
      "Ġreason": 2160,
      "ards": 2161,
      "Ġcho": 2162,
      "ww": 2163,
      "Ġfig": 2164,
      "Ġanswer": 2165,
      "Ġfair": 2166,
      "Ġbuy": 2167,
      "ining": 2168,
      "ĠWorld": 2169,
      "ately": 2170,
      "sc": 2171,
      "vision": 2172,
      "Ġexpect": 2173,
      "RE": 2174,
      "Ġbutter": 2175,
      "Ġothers": 2176,
      "mas": 2177,
      "Ġocc": 2178,
      "Ġsea": 2179,
      "ĠWhen": 2180,
      "ently": 2181,
      "Ġpast": 2182,
      "Ġ-": 2183,
      "Ġgrow": 2184,
      "Ġline": 2185,
      "alth": 2186,
      "rict": 2187,
      "Ġclass": 2188,
      "Ġpu": 2189,
      "ional": 2190,
      "Ġdraw": 2191,
      "Ġlangu": 2192,
      "hold": 2193,
      "âĻ": 2194,
      "Ġeither": 2195,
      "Ġimportant": 2196,
      "Ġbat": 2197,
      "ament": 2198,
      "com": 2199,
      "Ġmember": 2200,
      "avid": 2201,
      "ĠApril": 2202,
      "aim": 2203,
      "itten": 2204,
      "ĠOctober": 2205,
      "ler": 2206,
      "Ġlives": 2207,
      "âĻª": 2208,
      "Ġadv": 2209,
      "Ġtill": 2210,
      "Ġtree": 2211,
      "Ġreport": 2212,
      "ula": 2213,
      "ĠPro": 2214,
      "Ġhorse": 2215,
      "rie": 2216,
      "ature": 2217,
      "Ġattack": 2218,
      "000": 2219,
      "Ġwear": 2220,
      "Ġkids": 2221,
      "arch": 2222,
      "Ġrece": 2223,
      "Ġmess": 2224,
      "raid": 2225,
      "ï¿½ï¿½ï¿½ï¿½": 2226,
      "Ġblock": 2227,
      "Ġsend": 2228,
      "Ġ17": 2229,
      "Ġgra": 2230,
      "ĠLe": 2231,
      "ai": 2232,
      "Ġkilled": 2233,
      "Ġsold": 2234,
      "Ġbecome": 2235,
      "Ġfree": 2236,
      "Ġconst": 2237,
      "gue": 2238,
      "ality": 2239,
      "Ġcamp": 2240,
      "ĠSw": 2241,
      "Ġorder": 2242,
      "mother": 2243,
      "Ġmain": 2244,
      "oe": 2245,
      "osp": 2246,
      "Ġexp": 2247,
      "ĠBro": 2248,
      "Ġquiet": 2249,
      "Ġtea": 2250,
      "Ġamong": 2251,
      "Ġcried": 2252,
      "ement": 2253,
      "yup": 2254,
      "Ġpur": 2255,
      "Ġcompany": 2256,
      "Ġglad": 2257,
      "Ġearly": 2258,
      "Ġmoon": 2259,
      "Ġacross": 2260,
      "Your": 2261,
      "Ġheld": 2262,
      "nina": 2263,
      "Ġdro": 2264,
      "Ġ2017": 2265,
      "Ġjump": 2266,
      "ffee": 2267,
      "icks": 2268,
      "Ġworked": 2269,
      "Ġobject": 2270,
      "duc": 2271,
      "ĠEuro": 2272,
      "ĠHar": 2273,
      "ached": 2274,
      "ges": 2275,
      "ica": 2276,
      "CH": 2277,
      "ened": 2278,
      "Ġstar": 2279,
      "Ġtoys": 2280,
      "itty": 2281,
      "Re": 2282,
      "Ġvisit": 2283,
      "bl": 2284,
      "Ġwall": 2285,
      "Ġreleased": 2286,
      "ĠWar": 2287,
      "iddle": 2288,
      "Ġsn": 2289,
      "Ġthinking": 2290,
      "Please": 2291,
      "Ġ15": 2292,
      "ĠRuss": 2293,
      "AS": 2294,
      "ĠUniversity": 2295,
      "Ġfast": 2296,
      "Ġanimals": 2297,
      "aced": 2298,
      "Ġgets": 2299,
      "HS": 2300,
      "Ġteac": 2301,
      "laughing": 2302,
      "Ġill": 2303,
      "Ġcor": 2304,
      "ived": 2305,
      "Ġ193": 2306,
      "To": 2307,
      "Ġnoise": 2308,
      "dy": 2309,
      "urch": 2310,
      "Ġband": 2311,
      "illy": 2312,
      "One": 2313,
      "two": 2314,
      "ĠRep": 2315,
      "Ġopp": 2316,
      "Ġsoft": 2317,
      "music": 2318,
      "Ġnine": 2319,
      "Ġclean": 2320,
      "Ġgroup": 2321,
      "Ġsometimes": 2322,
      "inning": 2323,
      "Ġproblem": 2324,
      "dden": 2325,
      "Ġrepl": 2326,
      "Ġafraid": 2327,
      "Mark": 2328,
      "Ġdem": 2329,
      "Ġcompet": 2330,
      "Ġfing": 2331,
      "Ġcheck": 2332,
      "Ġmarried": 2333,
      "Ġsingle": 2334,
      "Ġins": 2335,
      "stem": 2336,
      "AUN": 2337,
      "ĠGu": 2338,
      "Ġz": 2339,
      "ĠCon": 2340,
      "Ġadm": 2341,
      "king": 2342,
      "Ġfinished": 2343,
      "Ġtrouble": 2344,
      "ains": 2345,
      "Ġtomorrow": 2346,
      "entle": 2347,
      "ility": 2348,
      "Ġbooks": 2349,
      "Ġ12": 2350,
      "owed": 2351,
      "Ġ16": 2352,
      "ĠJe": 2353,
      "ĠItal": 2354,
      "oman": 2355,
      "Ġsudden": 2356,
      "ĠIf": 2357,
      "Ġhit": 2358,
      "ays": 2359,
      "ĠMan": 2360,
      "ĠPaul": 2361,
      "Ġfly": 2362,
      "ĠTo": 2363,
      "fic": 2364,
      "hanks": 2365,
      "cient": 2366,
      "ering": 2367,
      "Ġbirthday": 2368,
      "Ġmis": 2369,
      "Ġsever": 2370,
      "har": 2371,
      "ĠEngland": 2372,
      "iver": 2373,
      "Ġton": 2374,
      "Ġce": 2375,
      "Ġchance": 2376,
      "nock": 2377,
      "Ġpos": 2378,
      "ically": 2379,
      "Ġresp": 2380,
      "band": 2381,
      "Ġvill": 2382,
      "Ġkept": 2383,
      "'.": 2384,
      "ox": 2385,
      "ana": 2386,
      "ician": 2387,
      "Ġforget": 2388,
      "Ġfix": 2389,
      "raz": 2390,
      "Ġgovernment": 2391,
      "iny": 2392,
      "Because": 2393,
      "Ġpublic": 2394,
      "phan": 2395,
      "Ġthemselves": 2396,
      "resident": 2397,
      "ode": 2398,
      "Mr": 2399,
      "ising": 2400,
      "Ġnin": 2401,
      "Here": 2402,
      "Ġsweet": 2403,
      "Mm": 2404,
      "ĠGo": 2405,
      "Ġdepart": 2406,
      "Ġeating": 2407,
      "Ġcorn": 2408,
      "Ġdaughter": 2409,
      "ĠMin": 2410,
      "ĠDon": 2411,
      "night": 2412,
      "eared": 2413,
      "Ġeng": 2414,
      "Ġmur": 2415,
      "idge": 2416,
      "ories": 2417,
      "IT": 2418,
      "Ġsurpr": 2419,
      "ted": 2420,
      "ĠâĢĺ": 2421,
      "EX": 2422,
      "anger": 2423,
      "Ġseveral": 2424,
      "Ġmonths": 2425,
      "Ġground": 2426,
      "ajor": 2427,
      "Ross": 2428,
      "Ġice": 2429,
      "Ġbag": 2430,
      "owers": 2431,
      "Ġwithin": 2432,
      "Ġpain": 2433,
      "Ġstore": 2434,
      "itchen": 2435,
      "Ġdinner": 2436,
      "Ġevent": 2437,
      "Ġprov": 2438,
      "ĠTO": 2439,
      "ello": 2440,
      "ĠYOU": 2441,
      "ED": 2442,
      "ĠBar": 2443,
      "Ġgoin": 2444,
      "Ġwindow": 2445,
      "Ġfish": 2446,
      "Ġtoy": 2447,
      "Ġgold": 2448,
      "velop": 2449,
      "ĠBen": 2450,
      "ued": 2451,
      "Ġstood": 2452,
      "ĠDaddy": 2453,
      "ĠYeah": 2454,
      "Ġsca": 2455,
      "Ġnational": 2456,
      "bed": 2457,
      "ĠJuly": 2458,
      "Ġmot": 2459,
      "Ġeye": 2460,
      "iron": 2461,
      "Ġmouth": 2462,
      "ĠChar": 2463,
      "overed": 2464,
      "ĠBritish": 2465,
      ",--": 2466,
      "Ġknows": 2467,
      "Ġcoffee": 2468,
      "ĠEurope": 2469,
      "oon": 2470,
      "Ġ?": 2471,
      "Ġpot": 2472,
      "ovember": 2473,
      "gram": 2474,
      "Ġkitchen": 2475,
      "Ġfil": 2476,
      "ĠChristmas": 2477,
      "Ġcaterpillar": 2478,
      "Ġgun": 2479,
      "Ġforgot": 2480,
      "col": 2481,
      "Ġrain": 2482,
      "does": 2483,
      "Ġbath": 2484,
      "Ġstru": 2485,
      "ĠCol": 2486,
      "ĠGeor": 2487,
      "ruary": 2488,
      "ebruary": 2489,
      "An": 2490,
      "Ġtem": 2491,
      "Ġtouch": 2492,
      "iding": 2493,
      "ET": 2494,
      "]?": 2495,
      "cember": 2496,
      "ĠCity": 2497,
      "teen": 2498,
      "Ġrunning": 2499,
      ".'": 2500,
      "ude": 2501,
      "hin": 2502,
      "Ġabove": 2503,
      "Ġ2021": 2504,
      "Ġorgan": 2505,
      "Ġwhether": 2506,
      "Ġclot": 2507,
      "Ġ11": 2508,
      "Ġdoctor": 2509,
      "con": 2510,
      "Ġmist": 2511,
      "actly": 2512,
      "Ah": 2513,
      "ĠYes": 2514,
      "Ġseries": 2515,
      "Ġeasy": 2516,
      "nes": 2517,
      "Ġblood": 2518,
      "ĠMother": 2519,
      "Ġexper": 2520,
      "HV": 2521,
      "Ġleng": 2522,
      "urg": 2523,
      "ccess": 2524,
      "ĠDr": 2525,
      "Ġarm": 2526,
      "Ġsomebody": 2527,
      "points": 2528,
      "with": 2529,
      "Ġtreat": 2530,
      "Ġwrote": 2531,
      "erry": 2532,
      "Ġpleas": 2533,
      "Ġhors": 2534,
      "ird": 2535,
      "Ġcross": 2536,
      "Ġty": 2537,
      "ĠDavid": 2538,
      "LLD": 2539,
      "yl": 2540,
      "HSLLD": 2541,
      "ract": 2542,
      "Ġ2019": 2543,
      "Ġsitting": 2544,
      "Ġpage": 2545,
      "Every": 2546,
      "Ġfa": 2547,
      "Ġlonger": 2548,
      "Ġspecial": 2549,
      "dom": 2550,
      "Ġest": 2551,
      "was": 2552,
      "Ġoffice": 2553,
      "Ġhoney": 2554,
      "irt": 2555,
      "ĠComm": 2556,
      "que": 2557,
      "thank": 2558,
      "Ġgentle": 2559,
      "Ġhop": 2560,
      "essie": 2561,
      "play": 2562,
      "Ġsystem": 2563,
      "ushed": 2564,
      "Ġdef": 2565,
      "phone": 2566,
      "Ġhours": 2567,
      "Ġcomple": 2568,
      "mpions": 2569,
      "Ġinde": 2570,
      "avy": 2571,
      "Ġseems": 2572,
      "joy": 2573,
      "Ġalright": 2574,
      "Ġtelling": 2575,
      "Ġdoub": 2576,
      "ager": 2577,
      "Ġmeant": 2578,
      "ging": 2579,
      "Ġperhaps": 2580,
      "Ġstreet": 2581,
      "Ġhuman": 2582,
      "Ġtonight": 2583,
      "Ġya": 2584,
      "Ġconc": 2585,
      "Ġprofess": 2586,
      "Ġdra": 2587,
      "gar": 2588,
      "oof": 2589,
      "Ġnor": 2590,
      "Ġtelevision": 2591,
      "unity": 2592,
      "Ġfootball": 2593,
      "ium": 2594,
      "wait": 2595,
      "Some": 2596,
      "Ġhang": 2597,
      "ĠNovember": 2598,
      "ondon": 2599,
      "Ġahead": 2600,
      "ĠDo": 2601,
      "reed": 2602,
      "Ġhowever": 2603,
      "ots": 2604,
      "Ġevening": 2605,
      "some": 2606,
      "ĠMy": 2607,
      "eal": 2608,
      "Ġdi": 2609,
      "Ġroll": 2610,
      "bye": 2611,
      "ĠAf": 2612,
      "Ġboat": 2613,
      "rat": 2614,
      "Ġmod": 2615,
      "Ġthird": 2616,
      "ĠFebruary": 2617,
      "Ġstep": 2618,
      "ĠMary": 2619,
      "Ġyours": 2620,
      "ĠMom": 2621,
      "Ġgod": 2622,
      "Ġanymore": 2623,
      "Ġ2016": 2624,
      "ĠPart": 2625,
      "Ġslow": 2626,
      "unk": 2627,
      "ĠNational": 2628,
      "Ġmillion": 2629,
      "Ġstra": 2630,
      "usband": 2631,
      "fly": 2632,
      "Ġpartic": 2633,
      "Ġprison": 2634,
      "Ġwhom": 2635,
      "Ġpresident": 2636,
      "Ġsounds": 2637,
      "TER": 2638,
      "ilver": 2639,
      "Ġring": 2640,
      "Ġmoved": 2641,
      "itch": 2642,
      "Ġhar": 2643,
      "Ġ14": 2644,
      "Ġnews": 2645,
      "Ġperfect": 2646,
      "Ġann": 2647,
      "Ġsupport": 2648,
      "Ġsafe": 2649,
      "Ġaren": 2650,
      "Ġpassed": 2651,
      "ĠDecember": 2652,
      "Ġdad": 2653,
      "Uh": 2654,
      "Ġnoises": 2655,
      "ĠJune": 2656,
      "Ġbird": 2657,
      "ĠPresident": 2658,
      "Ġlad": 2659,
      "astic": 2660,
      "Ġ13": 2661,
      "Ġthirty": 2662,
      "llustr": 2663,
      "Ġbuilt": 2664,
      "Ġcake": 2665,
      "mbers": 2666,
      "Ġinstead": 2667,
      "uthor": 2668,
      "Ġride": 2669,
      "Ġwritten": 2670,
      "ouncil": 2671,
      "Ġbuilding": 2672,
      "Ex": 2673,
      "Ġdefe": 2674,
      "ĠLondon": 2675,
      "Ġanyone": 2676,
      "ĠPe": 2677,
      "Ġtired": 2678,
      "resent": 2679,
      "Ġstanding": 2680,
      "Ġ192": 2681,
      "Ġhistory": 2682,
      "Ġcoup": 2683,
      "rigin": 2684,
      "Ġclos": 2685,
      "bit": 2686,
      "ron": 2687,
      "Ġmount": 2688,
      "Ġloud": 2689,
      "thened": 2690,
      "ange": 2691,
      "Ġ2015": 2692,
      "Ġglass": 2693,
      "fer": 2694,
      "Ġweeks": 2695,
      "Ġfle": 2696,
      "ov": 2697,
      "unicip": 2698,
      "ror": 2699,
      "Ġtruck": 2700,
      "Ġcharac": 2701,
      "Ġeverybody": 2702,
      "ĠHouse": 2703,
      "dat": 2704,
      "Ġcontro": 2705,
      "ral": 2706,
      "Ġthrow": 2707,
      "Ġpark": 2708,
      "anta": 2709,
      "ressed": 2710,
      "Ġ#": 2711,
      "amb": 2712,
      "Ġru": 2713,
      "Ġdiv": 2714,
      "ced": 2715,
      "ping": 2716,
      "ĠPl": 2717,
      "Ġabs": 2718,
      "bout": 2719,
      "Ġsick": 2720,
      "ĠCal": 2721,
      "ĠWh": 2722,
      "Ġwaiting": 2723,
      "ground": 2724,
      "Ġcirc": 2725,
      "estern": 2726,
      "Ġhusband": 2727,
      "ored": 2728,
      "ĠSouth": 2729,
      "Ġlunch": 2730,
      "ended": 2731,
      "Ġcost": 2732,
      "Ġclim": 2733,
      "Ġformer": 2734,
      "Ġdanger": 2735,
      "ĠDor": 2736,
      "ency": 2737,
      "Maybe": 2738,
      "emy": 2739,
      ",'": 2740,
      "Ġcop": 2741,
      "Ġcast": 2742,
      "par": 2743,
      "Ġsnow": 2744,
      "Ġbow": 2745,
      "terday": 2746,
      "Ġdeep": 2747,
      "Ġ2020": 2748,
      "ounced": 2749,
      "Ġpossible": 2750,
      "Ġdep": 2751,
      "Ġdevelop": 2752,
      "ternational": 2753,
      "cri": 2754,
      "Ġbreat": 2755,
      "Of": 2756,
      "Ġfear": 2757,
      "Ġparent": 2758,
      "Ġbroke": 2759,
      "Ġtrees": 2760,
      "Ġsave": 2761,
      "att": 2762,
      "AY": 2763,
      "iter": 2764,
      "idence": 2765,
      "Ġknock": 2766,
      "Ġsuppose": 2767,
      "Ġve": 2768,
      "Ġsand": 2769,
      "iled": 2770,
      "tom": 2771,
      "Ġreturned": 2772,
      "Ġcand": 2773,
      "hel": 2774,
      "noon": 2775,
      "stairs": 2776,
      "ky": 2777,
      "Ġsecret": 2778,
      "Ġriver": 2779,
      "Ġcertainly": 2780,
      "Ġtest": 2781,
      "Ġtakes": 2782,
      "Ġwriting": 2783,
      "HAT": 2784,
      "Ġfur": 2785,
      "ĠCap": 2786,
      "Ġspace": 2787,
      "Ġteacher": 2788,
      "Ġindeed": 2789,
      "Ġwarm": 2790,
      "Ġcannot": 2791,
      "Ġterri": 2792,
      "Ġfeeling": 2793,
      "LE": 2794,
      "ĠJack": 2795,
      "Ġenjoy": 2796,
      "llo": 2797,
      "Ġplaces": 2798,
      "Ġpost": 2799,
      "Ġwhatever": 2800,
      "Ġswim": 2801,
      "ĠMarky": 2802,
      "Ġsuccess": 2803,
      "Ġspell": 2804,
      "Illustr": 2805,
      "Ġfellow": 2806,
      "omb": 2807,
      "ĠOne": 2808,
      "Ġarri": 2809,
      "ulation": 2810,
      "Ġmiddle": 2811,
      "Ġdaddy": 2812,
      "ospital": 2813,
      "With": 2814,
      "Ġcry": 2815,
      "Ġstraight": 2816,
      "Ġcaught": 2817,
      "US": 2818,
      "maybe": 2819,
      "Ġluck": 2820,
      "Ġworks": 2821,
      "ior": 2822,
      "Ġstri": 2823,
      "ĠTr": 2824,
      "arden": 2825,
      "ĠAN": 2826,
      "Ġsupposed": 2827,
      "Ġprogram": 2828,
      "Ġda": 2829,
      "oose": 2830,
      "ĠAm": 2831,
      "Ġpolice": 2832,
      "Illustration": 2833,
      "Ġspec": 2834,
      "Ġparticular": 2835,
      "After": 2836,
      "Have": 2837,
      "Ġpen": 2838,
      "Ġlow": 2839,
      "Ġmembers": 2840,
      "Ġdisapp": 2841,
      "Ġprotect": 2842,
      "time": 2843,
      "Ġvict": 2844,
      "Ġdecided": 2845,
      "oul": 2846,
      "though": 2847,
      "ĠPer": 2848,
      "Ġclothes": 2849,
      "II": 2850,
      "ĠSha": 2851,
      "Ġvar": 2852,
      "Ġprodu": 2853,
      "Ġmunicip": 2854,
      "Ġoper": 2855,
      "Ġfit": 2856,
      "iday": 2857,
      "Ġcouple": 2858,
      "Ġusually": 2859,
      "ĠTe": 2860,
      "Ġju": 2861,
      "Ġval": 2862,
      "Ġtruth": 2863,
      "Get": 2864,
      "cher": 2865,
      "Ġbright": 2866,
      "Ġdet": 2867,
      "Ġlanguage": 2868,
      "igg": 2869,
      "Ġdiffic": 2870,
      "Ch": 2871,
      "uri": 2872,
      "Ã¡": 2873,
      "ask": 2874,
      "ĠIN": 2875,
      "empt": 2876,
      "Ġarms": 2877,
      "ĠIndian": 2878,
      "over": 2879,
      "Ġwild": 2880,
      "Ġeveryone": 2881,
      "ĠNorth": 2882,
      "mo": 2883,
      "ĠJust": 2884,
      "Ġexactly": 2885,
      "unday": 2886,
      "Ġsouth": 2887,
      "hire": 2888,
      "hile": 2889,
      "Ġcal": 2890,
      "Ġcool": 2891,
      "Ġclub": 2892,
      "Ġcars": 2893,
      "Ġchanged": 2894,
      "ichard": 2895,
      "Ġorigin": 2896,
      "AP": 2897,
      "Ġcream": 2898,
      "Ġafternoon": 2899,
      "silver": 2900,
      "Ġsell": 2901,
      "ctions": 2902,
      "Ġdistrict": 2903,
      "ID": 2904,
      "Ġdest": 2905,
      "Ġpieces": 2906,
      "icy": 2907,
      "ris": 2908,
      "aser": 2909,
      "Ġkiss": 2910,
      "ĠNot": 2911,
      "Ġcommon": 2912,
      "Ġwhose": 2913,
      "eg": 2914,
      "Ġ)": 2915,
      "Ġbes": 2916,
      "Ġpolitician": 2917,
      "Ġpuzz": 2918,
      "Ġdrive": 2919,
      "ding": 2920,
      "yy": 2921,
      "Ġ...": 2922,
      "ĠEdna": 2923,
      "oops": 2924,
      "Ġ30": 2925,
      "Ġfollowing": 2926,
      "Or": 2927,
      "Ġforward": 2928,
      "Ġgeneral": 2929,
      "Ġfavor": 2930,
      "Ġdepartment": 2931,
      "bor": 2932,
      "Ġnorth": 2933,
      "Ġappro": 2934,
      "wered": 2935,
      "Ġbroken": 2936,
      "Ġow": 2937,
      "Ġdoubt": 2938,
      "encil": 2939,
      "Ġvillage": 2940,
      "ourn": 2941,
      "Ġarmy": 2942,
      "Ġfinish": 2943,
      "Ġpictures": 2944,
      "Ġliked": 2945,
      "Ġearth": 2946,
      "Ġserved": 2947,
      "ĠParty": 2948,
      "Ġbra": 2949,
      "Ġlearn": 2950,
      "Ġbur": 2951,
      "whis": 2952,
      "Ġvide": 2953,
      "ĠLord": 2954,
      "Ġsuper": 2955,
      "ĠAfter": 2956,
      "Ġpract": 2957,
      "Ġyesterday": 2958,
      "Ġstopped": 2959,
      "Ġrul": 2960,
      "iger": 2961,
      "Ġpencil": 2962,
      "Ġcareer": 2963,
      "which": 2964,
      "Ġsus": 2965,
      "Ġprop": 2966,
      "ffic": 2967,
      "Ġanswered": 2968,
      "Ġcomplete": 2969,
      "MA": 2970,
      "Ġfail": 2971,
      "watch": 2972,
      "lin": 2973,
      "nce": 2974,
      "tell": 2975,
      "Ġlevel": 2976,
      "Any": 2977,
      "Ġfield": 2978,
      "ada": 2979,
      "Ġfigure": 2980,
      "Ġhole": 2981,
      "lex": 2982,
      "ĠNor": 2983,
      "Ġneeds": 2984,
      "Ġhast": 2985,
      "Ġeighty": 2986,
      "Ġesc": 2987,
      "CK": 2988,
      "Ġmatch": 2989,
      "Ġstrange": 2990,
      "Ġimag": 2991,
      "Ġleaf": 2992,
      "min": 2993,
      "nel": 2994,
      "Ġain": 2995,
      "Ġanybody": 2996,
      "olved": 2997,
      "ording": 2998,
      "Ġopened": 2999,
      "Ġ]": 3000,
      "Ġstre": 3001,
      "Ġang": 3002,
      "Ġ25": 3003,
      "Ġequ": 3004,
      "Ġusing": 3005,
      "ĠGermany": 3006,
      "fast": 3007,
      "Ġhappens": 3008,
      "amer": 3009,
      "Ġworth": 3010,
      "aged": 3011,
      "cuse": 3012,
      "ĠX": 3013,
      "Ġself": 3014,
      "Ġuncle": 3015,
      "ample": 3016,
      "ĠAld": 3017,
      "othy": 3018,
      "ĠWest": 3019,
      "uke": 3020,
      "acy": 3021,
      "Ġtur": 3022,
      "ĠNe": 3023,
      "ti": 3024,
      "Ġsummer": 3025,
      "Ġfill": 3026,
      "ĠSec": 3027,
      "Hello": 3028,
      "Ġcatch": 3029,
      "Ġwhis": 3030,
      "Ġproper": 3031,
      "give": 3032,
      "ceed": 3033,
      "Ġwa": 3034,
      "Ġgrew": 3035,
      "ustral": 3036,
      "Ġled": 3037,
      "ĠSe": 3038,
      "ogn": 3039,
      "Ġauthor": 3040,
      "Ġtowards": 3041,
      "Ġbelong": 3042,
      "Ġreceived": 3043,
      "OM": 3044,
      "ĠEar": 3045,
      "ribut": 3046,
      "Ġworry": 3047,
      "Ġprin": 3048,
      "lt": 3049,
      "ya": 3050,
      "ashing": 3051,
      "ĠQue": 3052,
      "Ġdesign": 3053,
      "Ġforty": 3054,
      "Ġav": 3055,
      "ege": 3056,
      "iced": 3057,
      "Ġputting": 3058,
      "uts": 3059,
      "Ġhig": 3060,
      "Ġshot": 3061,
      "Ġhorses": 3062,
      "ums": 3063,
      "Ġgiving": 3064,
      "inos": 3065,
      "ĠBessie": 3066,
      "Ġdev": 3067,
      "yn": 3068,
      "Ġtrust": 3069,
      "Ġlaughing": 3070,
      "ĠWilliam": 3071,
      "ino": 3072,
      "GRA": 3073,
      "lands": 3074,
      "of": 3075,
      "Ġdie": 3076,
      "Ġbeat": 3077,
      "Ġlau": 3078,
      "order": 3079,
      "ĠGeorge": 3080,
      "Ġparents": 3081,
      "Ġneigh": 3082,
      "oura": 3083,
      "Ġnose": 3084,
      "ĠSunday": 3085,
      "iew": 3086,
      "ĠOF": 3087,
      "view": 3088,
      "ichael": 3089,
      "Ġburn": 3090,
      "Ġcre": 3091,
      "cially": 3092,
      "Ġheavy": 3093,
      "iers": 3094,
      "ĠWal": 3095,
      "Ġlose": 3096,
      "Ġproduc": 3097,
      "ffect": 3098,
      "Ġtot": 3099,
      "Ġlab": 3100,
      "cell": 3101,
      "Ġ23": 3102,
      "Ġcover": 3103,
      "ĠWell": 3104,
      "olute": 3105,
      "apan": 3106,
      "sha": 3107,
      "olution": 3108,
      "ROG": 3109,
      "OK": 3110,
      "ius": 3111,
      "Ġpoints": 3112,
      "ĠEle": 3113,
      "Ġmeeting": 3114,
      "uture": 3115,
      "Ġreached": 3116,
      "Ġelephan": 3117,
      "ĠAd": 3118,
      "ills": 3119,
      "Ġship": 3120,
      "Sarah": 3121,
      "Ġseat": 3122,
      "your": 3123,
      "work": 3124,
      "Ġrequ": 3125,
      "Ġpat": 3126,
      "ĠSu": 3127,
      "ified": 3128,
      "Ġholding": 3129,
      "âĢľâĢĺ": 3130,
      "Ġreading": 3131,
      "Ġquickly": 3132,
      "LL": 3133,
      "ira": 3134,
      "ĠSh": 3135,
      "OW": 3136,
      "Ġthou": 3137,
      "ille": 3138,
      "gest": 3139,
      "ances": 3140,
      "ggest": 3141,
      "Ġstation": 3142,
      "Ġspir": 3143,
      "Ġcheese": 3144,
      "iol": 3145,
      "oke": 3146,
      "Ġanyway": 3147,
      "Ġ21": 3148,
      "Ġchick": 3149,
      "Ġpack": 3150,
      "Ġhospital": 3151,
      "ĠTed": 3152,
      "ander": 3153,
      "Ġshop": 3154,
      "AM": 3155,
      "ips": 3156,
      "Ġfort": 3157,
      "Ġrad": 3158,
      "Ġ24": 3159,
      "ĠAustral": 3160,
      "Ġcommune": 3161,
      "ĠAg": 3162,
      "Ġapple": 3163,
      "Wh": 3164,
      "singing": 3165,
      "ĠBear": 3166,
      "por": 3167,
      "zer": 3168,
      "Ġsevent": 3169,
      "iling": 3170,
      "Ġsol": 3171,
      "Ġconsider": 3172,
      "Ġposition": 3173,
      "Home": 3174,
      "Ġseason": 3175,
      "would": 3176,
      "Ġsight": 3177,
      "Ġmaster": 3178,
      "See": 3179,
      "Ġquar": 3180,
      "Ġfollowed": 3181,
      "Ġforest": 3182,
      "ization": 3183,
      "ray": 3184,
      "yer": 3185,
      "Ġemp": 3186,
      "ĠHen": 3187,
      "ĠEm": 3188,
      "Ġsuggest": 3189,
      "Ġloved": 3190,
      "Ġwonderful": 3191,
      "mon": 3192,
      "makes": 3193,
      "ĠCent": 3194,
      "ĠNow": 3195,
      "viously": 3196,
      "ĠSir": 3197,
      "ĠAnge": 3198,
      "Ġcond": 3199,
      "omp": 3200,
      "Ġsense": 3201,
      "Ġjuice": 3202,
      "ĠGreat": 3203,
      "?âĢĿ": 3204,
      "Ġapart": 3205,
      "Ġexcept": 3206,
      "Sorry": 3207,
      "Ġtit": 3208,
      "Ġgarden": 3209,
      "Ġeduc": 3210,
      "Ġmad": 3211,
      "Ġinform": 3212,
      "Ġeffect": 3213,
      "Ġflowers": 3214,
      "Ġhol": 3215,
      "ĠDan": 3216,
      "Ġshoes": 3217,
      "Ġbeginning": 3218,
      "dis": 3219,
      "lymp": 3220,
      "Ġsuddenly": 3221,
      "ives": 3222,
      "Ġexcl": 3223,
      "vin": 3224,
      "Ġwat": 3225,
      "Ġactiv": 3226,
      "ience": 3227,
      "Ġtast": 3228,
      "ishing": 3229,
      "Ġdanc": 3230,
      "pers": 3231,
      "worth": 3232,
      "Ġtail": 3233,
      "Ġla": 3234,
      "rill": 3235,
      "ĠNet": 3236,
      "Ġoffe": 3237,
      "Ġhous": 3238,
      "Ġban": 3239,
      "sey": 3240,
      "soci": 3241,
      "Ġlovely": 3242,
      "Ġcircle": 3243,
      "riage": 3244,
      "ĠOr": 3245,
      "Ġpriv": 3246,
      "Ġpress": 3247,
      "VE": 3248,
      "rug": 3249,
      "aimed": 3250,
      "Ġscared": 3251,
      "ĠAust": 3252,
      "Ġpretend": 3253,
      "Ġcharacter": 3254,
      "Ġsad": 3255,
      "ĠWhy": 3256,
      "Ġaccept": 3257,
      "Ġcause": 3258,
      "iff": 3259,
      "Ġstat": 3260,
      "Ġneck": 3261,
      "Ġjud": 3262,
      "Ġhealth": 3263,
      "Ġsupper": 3264,
      "RIC": 3265,
      "Ġgas": 3266,
      "aturday": 3267,
      "ĠRepubl": 3268,
      "ĠOlymp": 3269,
      "Ġservice": 3270,
      "ences": 3271,
      "ift": 3272,
      "Ġletters": 3273,
      "Ġstarts": 3274,
      "unny": 3275,
      "Ġrecogn": 3276,
      "puts": 3277,
      "Ġmajor": 3278,
      "Ġplate": 3279,
      "ĠPeter": 3280,
      "Ġcurrent": 3281,
      "Thanks": 3282,
      "iod": 3283,
      "Ġfuture": 3284,
      "ĠTur": 3285,
      "Ġview": 3286,
      "Ġmoving": 3287,
      "exas": 3288,
      "Ġmommy": 3289,
      "Ġdance": 3290,
      "Ġproblems": 3291,
      "Ġcorner": 3292,
      "sy": 3293,
      "Ġkn": 3294,
      "ĠEx": 3295,
      "ĠJapan": 3296,
      "Ġspend": 3297,
      "ĠPark": 3298,
      "THE": 3299,
      "ĠGl": 3300,
      "Ġboard": 3301,
      "Ġincluding": 3302,
      "Ġleaving": 3303,
      "Ġbread": 3304,
      "Ġcollect": 3305,
      "AD": 3306,
      "omin": 3307,
      "ograp": 3308,
      "Ġought": 3309,
      "eder": 3310,
      "Ġnames": 3311,
      "omething": 3312,
      "Ġappear": 3313,
      "ĠSis": 3314,
      "ission": 3315,
      "Ġvideo": 3316,
      "Ġgen": 3317,
      "ĠÃ": 3318,
      "Like": 3319,
      "val": 3320,
      "urse": 3321,
      "itted": 3322,
      "Ġspoke": 3323,
      "board": 3324,
      "Ġcreated": 3325,
      "His": 3326,
      "Ġiss": 3327,
      "ĠSy": 3328,
      "ĠPol": 3329,
      "Ġsugar": 3330,
      "Ġchurch": 3331,
      "Ġinvest": 3332,
      "ĠSm": 3333,
      "Ġcomfort": 3334,
      "Ġdifficult": 3335,
      "]!": 3336,
      "Ġcompl": 3337,
      "ruction": 3338,
      "ply": 3339,
      "Ġexample": 3340,
      "wood": 3341,
      "ades": 3342,
      "Ġbased": 3343,
      "cer": 3344,
      "--------": 3345,
      "ĠLea": 3346,
      "ĠEve": 3347,
      "ĠAmerica": 3348,
      "pered": 3349,
      "itched": 3350,
      "pper": 3351,
      "Ġcompan": 3352,
      "itions": 3353,
      "ĠUrs": 3354,
      "Ġbusy": 3355,
      "Ġ22": 3356,
      "tered": 3357,
      "ancy": 3358,
      "Erm": 3359,
      "field": 3360,
      "iforn": 3361,
      "Ġdelight": 3362,
      "Ġmunicipality": 3363,
      "kin": 3364,
      "ummy": 3365,
      "Ġseeing": 3366,
      "Ġregion": 3367,
      "Ġshar": 3368,
      "Ġblocks": 3369,
      "nic": 3370,
      "pping": 3371,
      "ĠVisit": 3372,
      "picks": 3373,
      "Ġbrown": 3374,
      "Ġreplied": 3375,
      "ient": 3376,
      "Ġcrying": 3377,
      "Ġcalling": 3378,
      "ĠJane": 3379,
      "ĠDad": 3380,
      "ifornia": 3381,
      "Ġsli": 3382,
      "ests": 3383,
      "Ġfinger": 3384,
      "Ġdecl": 3385,
      "isten": 3386,
      "hys": 3387,
      "Ġvol": 3388,
      "ĠOx": 3389,
      "Ġbreakfast": 3390,
      "Tell": 3391,
      "ere": 3392,
      "Ġitself": 3393,
      "ĠCo": 3394,
      "ĠItaly": 3395,
      "ĠRichard": 3396,
      "ĠOf": 3397,
      "Ġphot": 3398,
      "Wait": 3399,
      "Ġmention": 3400,
      "ument": 3401,
      "Ġwan": 3402,
      "Ġgames": 3403,
      "Ġcarried": 3404,
      "gged": 3405,
      "Ġbottom": 3406,
      "Ġlocal": 3407,
      "ĠJeff": 3408,
      "ĠDorothy": 3409,
      "Ġtiny": 3410,
      "round": 3411,
      "Ġanx": 3412,
      "Ġpopulation": 3413,
      "boy": 3414,
      "Ġbank": 3415,
      "oop": 3416,
      "resh": 3417,
      "Ġwatching": 3418,
      "Mar": 3419,
      "chan": 3420,
      "Ġep": 3421,
      "Ġdere": 3422,
      "Ġhelped": 3423,
      "Ġcareful": 3424,
      "Ġhate": 3425,
      "Ġrepresent": 3426,
      "Ġdiscuss": 3427,
      "ĠRoman": 3428,
      "ĠLou": 3429,
      "Ġcrit": 3430,
      "Ġquestions": 3431,
      "Ġfurther": 3432,
      "ĠQueen": 3433,
      "turn": 3434,
      "Ġlie": 3435,
      "apa": 3436,
      "Ġsixty": 3437,
      "will": 3438,
      "Ġcard": 3439,
      "Ġappeared": 3440,
      "Ġcow": 3441,
      "Ġbell": 3442,
      "Ġnobody": 3443,
      "10": 3444,
      "irm": 3445,
      "Ġanimal": 3446,
      "ĠMinister": 3447,
      "sit": 3448,
      "ourt": 3449,
      "Ġperfor": 3450,
      "Ġrelig": 3451,
      "Adam": 3452,
      "ĠSanta": 3453,
      "Ġflat": 3454,
      "Ġcarry": 3455,
      "Ġlegs": 3456,
      "Ġobjects": 3457,
      "ĠSaturday": 3458,
      "ĠBaby": 3459,
      "raft": 3460,
      "ĠSchool": 3461,
      "ercy": 3462,
      "het": 3463,
      "ĠChampions": 3464,
      "Ġentire": 3465,
      "ĠCalifornia": 3466,
      "bers": 3467,
      "liament": 3468,
      "know": 3469,
      "GH": 3470,
      "off": 3471,
      "erm": 3472,
      "omen": 3473,
      "ĠSome": 3474,
      "ĠWith": 3475,
      "Ġalive": 3476,
      "Ġasking": 3477,
      "Ne": 3478,
      "cket": 3479,
      "epend": 3480,
      "COU": 3481,
      "Ġstudio": 3482,
      "Will": 3483,
      "want": 3484,
      "yed": 3485,
      "pecially": 3486,
      "Ġmid": 3487,
      "Ġstuck": 3488,
      "ĠMc": 3489,
      "Ġbackground": 3490,
      "take": 3491,
      "itary": 3492,
      "Ġproud": 3493,
      "Ġaccount": 3494,
      "AK": 3495,
      "rer": 3496,
      "Ġbought": 3497,
      "utch": 3498,
      "ĠThese": 3499,
      "Ġnearly": 3500,
      "hood": 3501,
      "say": 3502,
      "Ġtrack": 3503,
      "umph": 3504,
      "Ġallowed": 3505,
      "ĠGree": 3506,
      "Ġbigger": 3507,
      "acing": 3508,
      "ĠTexas": 3509,
      "Ġrace": 3510,
      "ference": 3511,
      "Ġwalked": 3512,
      "Ġtoward": 3513,
      "ico": 3514,
      "Ġmiles": 3515,
      "Ġpromise": 3516,
      "18": 3517,
      "iment": 3518,
      "Ġcapital": 3519,
      "Hi": 3520,
      "orence": 3521,
      "ĠState": 3522,
      "ghed": 3523,
      "cience": 3524,
      "Ġcourt": 3525,
      "Ġsubject": 3526,
      "Ġlock": 3527,
      "talk": 3528,
      "have": 3529,
      "ĠRed": 3530,
      "Ġvers": 3531,
      "Ġhall": 3532,
      "ket": 3533,
      "Ġmix": 3534,
      "ANN": 3535,
      "Ġcharge": 3536,
      "Take": 3537,
      "Me": 3538,
      "Un": 3539,
      "Ġtall": 3540,
      "Ġfinal": 3541,
      "Ġlearned": 3542,
      "Ġattention": 3543,
      "ume": 3544,
      "cious": 3545,
      "ĠRussian": 3546,
      "uation": 3547,
      "va": 3548,
      "HER": 3549,
      "Ġstars": 3550,
      "str": 3551,
      "Ġpolitical": 3552,
      "Ġtor": 3553,
      "Ġshout": 3554,
      "Ġweren": 3555,
      "Ġsomewhere": 3556,
      "uge": 3557,
      "roat": 3558,
      "ploy": 3559,
      "ĠJo": 3560,
      "Ġcentury": 3561,
      "Ġbab": 3562,
      "Ġlim": 3563,
      "ĠBy": 3564,
      "Ġpeace": 3565,
      "Ġplayer": 3566,
      "Ġpaint": 3567,
      "Ġdinos": 3568,
      "Ġnatur": 3569,
      "osta": 3570,
      "Ġputs": 3571,
      "gu": 3572,
      "Ġwel": 3573,
      "Ġaccident": 3574,
      "anor": 3575,
      "Ġlift": 3576,
      "Ġaff": 3577,
      "Ġpuzzle": 3578,
      "ause": 3579,
      "Ġgar": 3580,
      "ida": 3581,
      "Ġspoon": 3582,
      ",âĢĻ": 3583,
      "BR": 3584,
      "ria": 3585,
      "ĠCaptain": 3586,
      "Ġinformation": 3587,
      "has": 3588,
      "ases": 3589,
      "uses": 3590,
      "Ġgrass": 3591,
      "Ġsticks": 3592,
      "ĠIndia": 3593,
      "oming": 3594,
      "Ġflew": 3595,
      "bles": 3596,
      "Ġparts": 3597,
      "clock": 3598,
      "Ġbottle": 3599,
      "Ġdropped": 3600,
      "ĠOxford": 3601,
      "umm": 3602,
      "Ġorange": 3603,
      "Ġbirds": 3604,
      "ology": 3605,
      "aff": 3606,
      "raph": 3607,
      "ĠMe": 3608,
      "ki": 3609,
      "ĠTom": 3610,
      "Ġshouldn": 3611,
      "Ġcontrol": 3612,
      "EW": 3613,
      "ĠEl": 3614,
      "gon": 3615,
      "house": 3616,
      "ased": 3617,
      "ils": 3618,
      "ĠChe": 3619,
      "GMA": 3620,
      "Ġshowed": 3621,
      "NG": 3622,
      "ords": 3623,
      "AND": 3624,
      "Sh": 3625,
      "Ġsna": 3626,
      "Ġboo": 3627,
      "esta": 3628,
      "Ġdescri": 3629,
      "\")": 3630,
      "Ġ*": 3631,
      "uty": 3632,
      "ĠMa": 3633,
      "HIS": 3634,
      "Ġchief": 3635,
      "Ġeggs": 3636,
      "Ġbutterfly": 3637,
      "Ġfright": 3638,
      "ĠCouncil": 3639,
      "Ġ26": 3640,
      "Ġinteresting": 3641,
      "ĠSan": 3642,
      "Ġrid": 3643,
      "Ġ28": 3644,
      "Ġlaughed": 3645,
      "FA": 3646,
      "ires": 3647,
      "Ġjoined": 3648,
      "Ġshut": 3649,
      "Ġengine": 3650,
      "ption": 3651,
      "medi": 3652,
      "Ġincre": 3653,
      "eds": 3654,
      "Ġ27": 3655,
      "eneral": 3656,
      "Ġlengthened": 3657,
      "under": 3658,
      "rect": 3659,
      "Ġrese": 3660,
      "Ġsex": 3661,
      "aud": 3662,
      "Ġpopular": 3663,
      "Ġbattle": 3664,
      "ĠGovern": 3665,
      "olutely": 3666,
      "light": 3667,
      "Ġmach": 3668,
      "Ġhost": 3669,
      "obert": 3670,
      "Ġextra": 3671,
      "Ġonto": 3672,
      "onday": 3673,
      "Ġfem": 3674,
      "Ġbeach": 3675,
      "ivil": 3676,
      "ĠSpan": 3677,
      "ĠChan": 3678,
      "antly": 3679,
      "Ġviol": 3680,
      "car": 3681,
      "itive": 3682,
      "romer": 3683,
      "ids": 3684,
      "Ġord": 3685,
      "Ġperiod": 3686,
      "Ġrespect": 3687,
      "Ġcountries": 3688,
      "Ã¼": 3689,
      "Ġmem": 3690,
      "Ġfilm": 3691,
      "father": 3692,
      "Ġut": 3693,
      "Ġdue": 3694,
      "omes": 3695,
      "Ġears": 3696,
      "Stop": 3697,
      "Ġdirected": 3698,
      "Ġleaves": 3699,
      "dog": 3700,
      "ups": 3701,
      "Ġï¿½": 3702,
      "Ġpati": 3703,
      "arm": 3704,
      "ĠAunt": 3705,
      "Ġearli": 3706,
      "dered": 3707,
      "ĠAb": 3708,
      "Ġspent": 3709,
      "UT": 3710,
      "Ġwide": 3711,
      "irty": 3712,
      "ĠCla": 3713,
      "rab": 3714,
      "Ġpi": 3715,
      "Ġneeded": 3716,
      "liz": 3717,
      "Ġwalking": 3718,
      "ston": 3719,
      "Ġworse": 3720,
      "inal": 3721,
      "Ġforth": 3722,
      "Ġtalked": 3723,
      "Ġsurprise": 3724,
      "Ġstage": 3725,
      "Ġchocol": 3726,
      ".âĢĻ": 3727,
      "Ġmus": 3728,
      "Ġduck": 3729,
      "ĠAnn": 3730,
      "Br": 3731,
      "Ġrepe": 3732,
      "Ġstudy": 3733,
      "ĠTony": 3734,
      "urity": 3735,
      "ppy": 3736,
      "ĠRob": 3737,
      "these": 3738,
      "ours": 3739,
      "Ġconne": 3740,
      "Ġdirect": 3741,
      "ĠPort": 3742,
      "Ġaged": 3743,
      "Ġrose": 3744,
      "Ġcoco": 3745,
      "conom": 3746,
      "set": 3747,
      "Ġreach": 3748,
      "ĠAND": 3749,
      "Ġslice": 3750,
      "Ġleader": 3751,
      "Ġdam": 3752,
      "Ġforce": 3753,
      "ousin": 3754,
      "hello": 3755,
      "Ġcomb": 3756,
      "ĠMarc": 3757,
      "aker": 3758,
      "Ġpray": 3759,
      "ĠWhite": 3760,
      "Ġdestro": 3761,
      "Ġdar": 3762,
      "Ġdrop": 3763,
      "ĠMon": 3764,
      "ĠCr": 3765,
      "Ġnecess": 3766,
      "istory": 3767,
      "Ġattempt": 3768,
      "ĠFlorence": 3769,
      "Ġoffered": 3770,
      "Ġcell": 3771,
      "Ġfinally": 3772,
      "Ġconcern": 3773,
      "SS": 3774,
      "ously": 3775,
      "Ġterrible": 3776,
      "ination": 3777,
      "rel": 3778,
      "olf": 3779,
      "plane": 3780,
      "hand": 3781,
      "Ġenemy": 3782,
      "'?": 3783,
      "Ġrich": 3784,
      "ometimes": 3785,
      "Ġprofessional": 3786,
      "ĠâĻª": 3787,
      "Ġstories": 3788,
      "stit": 3789,
      "elve": 3790,
      "Ġturning": 3791,
      "Ġchicken": 3792,
      "Ġnone": 3793,
      "ami": 3794,
      "three": 3795,
      "Ġenc": 3796,
      "ek": 3797,
      "rec": 3798,
      "reme": 3799,
      "Ġpaid": 3800,
      "ili": 3801,
      "Ġcontinued": 3802,
      "Ġfavorite": 3803,
      "Ġangry": 3804,
      "aft": 3805,
      "line": 3806,
      "Ġhy": 3807,
      "icked": 3808,
      "af": 3809,
      "ĠEast": 3810,
      "ĠON": 3811,
      "Ġelection": 3812,
      "ĠKingdom": 3813,
      "Ġsky": 3814,
      "ĠJim": 3815,
      "Ġgrad": 3816,
      "Ġninety": 3817,
      "Cl": 3818,
      "ĠColl": 3819,
      "Ġclosed": 3820,
      "pin": 3821,
      "ĠRiver": 3822,
      "Ġ(\"": 3823,
      "ression": 3824,
      "Ġadded": 3825,
      "ville": 3826,
      "Ġpossib": 3827,
      "By": 3828,
      "Ġfarm": 3829,
      "Ġtype": 3830,
      "Ġslowly": 3831,
      "hem": 3832,
      "Ġclock": 3833,
      "Ġshare": 3834,
      "Ġfalls": 3835,
      "Ġexcit": 3836,
      "11": 3837,
      "cast": 3838,
      "song": 3839,
      "Ġbene": 3840,
      "Ġwasher": 3841,
      "Ġkey": 3842,
      "Ġcrow": 3843,
      "Ġshows": 3844,
      "Ġlots": 3845,
      "Ġelect": 3846,
      "Ġmagnets": 3847,
      "ĠHenry": 3848,
      "Ġnina": 3849,
      "ĠHung": 3850,
      "Ġplastic": 3851,
      "yond": 3852,
      "Ġsimply": 3853,
      "ĠEuropean": 3854,
      "uel": 3855,
      "Ġcommand": 3856,
      "Ġsleeping": 3857,
      "yle": 3858,
      "Ġport": 3859,
      "ĠIT": 3860,
      "Ġbegin": 3861,
      "Ġchocolate": 3862,
      "oyal": 3863,
      "bre": 3864,
      "Ġlying": 3865,
      "Ġdogg": 3866,
      "Ġmeat": 3867,
      "Ġ[?": 3868,
      "Ġtower": 3869,
      "cture": 3870,
      "ĠStreet": 3871,
      "Ġcaused": 3872,
      "ĠBlack": 3873,
      "From": 3874,
      "iving": 3875,
      "Ġhero": 3876,
      "Ġweap": 3877,
      "Ġrub": 3878,
      "Ġconvers": 3879,
      "Ġbrave": 3880,
      "Two": 3881,
      "ka": 3882,
      "ato": 3883,
      "ĠMad": 3884,
      "bert": 3885,
      "Ġbasket": 3886,
      "Ġowl": 3887,
      "Ġremark": 3888,
      "Ġstayed": 3889,
      "ĠFriday": 3890,
      "17": 3891,
      "Ġpal": 3892,
      "Ġprep": 3893,
      "isf": 3894,
      "Ġpers": 3895,
      "ĠMart": 3896,
      "ĠMex": 3897,
      "Ġfeed": 3898,
      "Ġserious": 3899,
      "Ġspeaking": 3900,
      "Ġ$": 3901,
      "Ġfighting": 3902,
      "ses": 3903,
      "ĠCup": 3904,
      "Mrs": 3905,
      "ially": 3906,
      "ration": 3907,
      "Ġaut": 3908,
      "iles": 3909,
      "Ġprocess": 3910,
      "van": 3911,
      "ilar": 3912,
      "rael": 3913,
      "Ġmarket": 3914,
      "Ġpleasure": 3915,
      "Ġsle": 3916,
      "Ġlikes": 3917,
      "Ġimmedi": 3918,
      "God": 3919,
      "Ġfresh": 3920,
      "ĠFather": 3921,
      "ĠLady": 3922,
      "ĠReg": 3923,
      "CE": 3924,
      "Ġcab": 3925,
      "ĠDolly": 3926,
      "Ġap": 3927,
      "omas": 3928,
      "Ġvan": 3929,
      "Ġsinger": 3930,
      "Ġrelations": 3931,
      "Ġsoldiers": 3932,
      "Ġpush": 3933,
      "Ġthinks": 3934,
      "Ġtrad": 3935,
      "ĠCourt": 3936,
      "ĠPat": 3937,
      "ĠDem": 3938,
      "Ġways": 3939,
      "Ġ2018": 3940,
      "ĠGrand": 3941,
      "Ġdry": 3942,
      "Ġ100": 3943,
      "Ġspring": 3944,
      "Ġthanks": 3945,
      "ival": 3946,
      "Would": 3947,
      "ĠCor": 3948,
      "Ġindust": 3949,
      "Ġvarious": 3950,
      "amps": 3951,
      "ĠUS": 3952,
      "soft": 3953,
      "Ġrabb": 3954,
      "Ġsinging": 3955,
      "Ġespecially": 3956,
      "Ġ&": 3957,
      "Ġiron": 3958,
      "lect": 3959,
      "ĠAlex": 3960,
      "Paul": 3961,
      "Ġcru": 3962,
      "Ġtelephone": 3963,
      "Ġofficer": 3964,
      "burg": 3965,
      "Ġscar": 3966,
      "rawber": 3967,
      "four": 3968,
      "Ġmass": 3969,
      "Ġcomput": 3970,
      "Ġobs": 3971,
      "Ġbreath": 3972,
      "Ġhide": 3973,
      "Ġisland": 3974,
      "Ġrole": 3975,
      "Ġhouses": 3976,
      "uhuh": 3977,
      "eat": 3978,
      "pret": 3979,
      "ĠMass": 3980,
      "Ġ29": 3981,
      "Ġblow": 3982,
      "Ġblank": 3983,
      "Ġdollars": 3984,
      "CHAP": 3985,
      "!'": 3986,
      "Ġbud": 3987,
      "ĠMonday": 3988,
      "Ġupstairs": 3989,
      "dd": 3990,
      "fin": 3991,
      "Ã¶": 3992,
      "erve": 3993,
      "ashed": 3994,
      "Ġstone": 3995,
      "andy": 3996,
      "These": 3997,
      "ĠNesta": 3998,
      "iance": 3999,
      "ĠSte": 4000,
      "razy": 4001,
      "nope": 4002,
      "Ġwash": 4003,
      "ural": 4004,
      "Ġlikely": 4005,
      "ĠKe": 4006,
      "Ġteeth": 4007,
      "Ġspirit": 4008,
      "CHAPTER": 4009,
      "Ġthreat": 4010,
      "Ġestab": 4011,
      "ashington": 4012,
      "sure": 4013,
      "Ġcos": 4014,
      "Ġfat": 4015,
      "Ġphys": 4016,
      "Ġexec": 4017,
      "Ġdogs": 4018,
      "Ġdressed": 4019,
      "rief": 4020,
      "ĠLeague": 4021,
      "mag": 4022,
      "writ": 4023,
      "ĠMichael": 4024,
      "Ġsocial": 4025,
      "ĠLittle": 4026,
      "Even": 4027,
      "inary": 4028,
      "Ġexist": 4029,
      "Ġenv": 4030,
      "Ġamaz": 4031,
      "Ar": 4032,
      "Ġspread": 4033,
      "Ġballs": 4034,
      "Ġsoftly": 4035,
      "Ġtitle": 4036,
      "please": 4037,
      "ĠĠĠĠĠĠ": 4038,
      "Ġguard": 4039,
      "Ġsmile": 4040,
      "Ġlawyer": 4041,
      "pha": 4042,
      "aps": 4043,
      "Ġpun": 4044,
      "Ġtech": 4045,
      "Ġcrack": 4046,
      "Ġcommun": 4047,
      "ĠHowever": 4048,
      "Ġfingers": 4049,
      "Ġmir": 4050,
      "Ġinfl": 4051,
      "Ġthroat": 4052,
      "ĠBel": 4053,
      "Ġallow": 4054,
      "Ġplays": 4055,
      "Ġfamous": 4056,
      "Ġwelcome": 4057,
      "ĠGood": 4058,
      "Ġdifference": 4059,
      "Really": 4060,
      "host": 4061,
      "lor": 4062,
      "ergy": 4063,
      "Ġemb": 4064,
      "ĠAre": 4065,
      "ĠPal": 4066,
      "Ġsuff": 4067,
      "Ġbite": 4068,
      "ĠBrian": 4069,
      "Ġrights": 4070,
      "ashion": 4071,
      "Ġspoken": 4072,
      "icle": 4073,
      "ĠFrom": 4074,
      "ĠNina": 4075,
      "ĠJames": 4076,
      "ighs": 4077,
      "ok": 4078,
      "itor": 4079,
      "Ġnorm": 4080,
      "ples": 4081,
      "ĠFraser": 4082,
      "Ġcompletely": 4083,
      "oly": 4084,
      "ram": 4085,
      "Ġdate": 4086,
      "Ġepis": 4087,
      "rican": 4088,
      "Ġbrain": 4089,
      "Ġbeyond": 4090,
      "oted": 4091,
      "ĠMed": 4092,
      "Ġvictim": 4093,
      "Ġsearch": 4094,
      "Ġrule": 4095
    },
    "merges": [
      [
        "Ġ",
        "t"
      ],
      [
        "h",
        "e"
      ],
      [
        "Ġ",
        "a"
      ],
      [
        "i",
        "n"
      ],
      [
        "Ġ",
        "w"
      ],
      [
        "Ġt",
        "he"
      ],
      [
        "o",
        "u"
      ],
      [
        "r",
        "e"
      ],
      [
        "Ġ",
        "s"
      ],
      [
        "o",
        "n"
      ],
      [
        "h",
        "a"
      ],
      [
        "e",
        "r"
      ],
      [
        "n",
        "d"
      ],
      [
        "Ġ",
        "b"
      ],
      [
        "i",
        "t"
      ],
      [
        "i",
        "s"
      ],
      [
        "Ġ",
        "m"
      ],
      [
        "Ġ",
        "c"
      ],
      [
        "Ġ",
        "o"
      ],
      [
        "Ġ",
        "d"
      ],
      [
        "Ġ",
        "f"
      ],
      [
        "in",
        "g"
      ],
      [
        "Ġt",
        "o"
      ],
      [
        "l",
        "l"
      ],
      [
        "a",
        "n"
      ],
      [
        "o",
        "r"
      ],
      [
        "e",
        "d"
      ],
      [
        "Ġ",
        "y"
      ],
      [
        "e",
        "s"
      ],
      [
        "e",
        "n"
      ],
      [
        "Ġ",
        "p"
      ],
      [
        "ha",
        "t"
      ],
      [
        "a",
        "r"
      ],
      [
        "H",
        "I"
      ],
      [
        "Ġy",
        "ou"
      ],
      [
        "Ġ",
        "l"
      ],
      [
        "Ġ",
        "g"
      ],
      [
        "C",
        "HI"
      ],
      [
        "Ġa",
        "nd"
      ],
      [
        "Ġo",
        "f"
      ],
      [
        "a",
        "s"
      ],
      [
        "O",
        "T"
      ],
      [
        "M",
        "OT"
      ],
      [
        "Ġ",
        "in"
      ],
      [
        "a",
        "t"
      ],
      [
        "o",
        "m"
      ],
      [
        "n",
        "o"
      ],
      [
        "Ġ",
        "I"
      ],
      [
        "Ġ",
        "he"
      ],
      [
        "Ġ",
        "h"
      ],
      [
        "l",
        "e"
      ],
      [
        "'",
        "s"
      ],
      [
        "Ġ",
        "ha"
      ],
      [
        "i",
        "c"
      ],
      [
        "a",
        "y"
      ],
      [
        "e",
        "t"
      ],
      [
        "v",
        "e"
      ],
      [
        "Ġ",
        "it"
      ],
      [
        "Ġt",
        "h"
      ],
      [
        "Ġ",
        "on"
      ],
      [
        "u",
        "s"
      ],
      [
        "i",
        "d"
      ],
      [
        "g",
        "h"
      ],
      [
        "Ġt",
        "hat"
      ],
      [
        "Ġb",
        "e"
      ],
      [
        "a",
        "l"
      ],
      [
        "Ġw",
        "as"
      ],
      [
        "l",
        "d"
      ],
      [
        "Ġ",
        "e"
      ],
      [
        "Ġ",
        "is"
      ],
      [
        "u",
        "t"
      ],
      [
        "o",
        "w"
      ],
      [
        "o",
        "o"
      ],
      [
        "Ġ",
        "no"
      ],
      [
        ".",
        "."
      ],
      [
        "Ġ",
        "="
      ],
      [
        "Ġw",
        "e"
      ],
      [
        "v",
        "er"
      ],
      [
        "i",
        "m"
      ],
      [
        "a",
        "c"
      ],
      [
        "k",
        "e"
      ],
      [
        "a",
        "d"
      ],
      [
        "Ġ",
        "n"
      ],
      [
        "'",
        "t"
      ],
      [
        "r",
        "i"
      ],
      [
        "Ġ",
        "re"
      ],
      [
        "o",
        "t"
      ],
      [
        "s",
        "e"
      ],
      [
        "en",
        "t"
      ],
      [
        "Ġf",
        "or"
      ],
      [
        "i",
        "r"
      ],
      [
        "gh",
        "t"
      ],
      [
        "Ġ",
        "S"
      ],
      [
        "a",
        "m"
      ],
      [
        "i",
        "on"
      ],
      [
        "Ġs",
        "t"
      ],
      [
        "l",
        "y"
      ],
      [
        "Ġ",
        "M"
      ],
      [
        "s",
        "t"
      ],
      [
        "Ġd",
        "o"
      ],
      [
        "Ġ",
        "T"
      ],
      [
        "Ġ",
        "u"
      ],
      [
        "ou",
        "t"
      ],
      [
        "Ġ",
        "k"
      ],
      [
        "r",
        "o"
      ],
      [
        "it",
        "h"
      ],
      [
        "Ġm",
        "e"
      ],
      [
        "he",
        "r"
      ],
      [
        "Ġ",
        "A"
      ],
      [
        "Ġ",
        "C"
      ],
      [
        "Ġw",
        "ith"
      ],
      [
        "a",
        "ll"
      ],
      [
        "e",
        "a"
      ],
      [
        "om",
        "e"
      ],
      [
        "u",
        "r"
      ],
      [
        "c",
        "h"
      ],
      [
        "a",
        "nd"
      ],
      [
        "Ġa",
        "n"
      ],
      [
        "Ġa",
        "t"
      ],
      [
        "Ġl",
        "i"
      ],
      [
        "Ġa",
        "s"
      ],
      [
        "t",
        "er"
      ],
      [
        "Ġw",
        "h"
      ],
      [
        "i",
        "ll"
      ],
      [
        "Ġ",
        "B"
      ],
      [
        "Ġs",
        "e"
      ],
      [
        "ou",
        "ld"
      ],
      [
        "Ġg",
        "o"
      ],
      [
        "Ġno",
        "t"
      ],
      [
        "Ġ",
        "H"
      ],
      [
        "c",
        "e"
      ],
      [
        "Ġha",
        "ve"
      ],
      [
        "A",
        "T"
      ],
      [
        "Ġth",
        "is"
      ],
      [
        "i",
        "l"
      ],
      [
        "no",
        "w"
      ],
      [
        "x",
        "x"
      ],
      [
        "F",
        "AT"
      ],
      [
        "e",
        "ll"
      ],
      [
        "us",
        "t"
      ],
      [
        "Ġhe",
        "r"
      ],
      [
        "..",
        "."
      ],
      [
        "i",
        "f"
      ],
      [
        "u",
        "n"
      ],
      [
        "an",
        "t"
      ],
      [
        "c",
        "t"
      ],
      [
        "Ġh",
        "is"
      ],
      [
        "Ġa",
        "re"
      ],
      [
        "Ġon",
        "e"
      ],
      [
        "Ġk",
        "now"
      ],
      [
        "r",
        "a"
      ],
      [
        "t",
        "h"
      ],
      [
        "o",
        "p"
      ],
      [
        "Ġ",
        "P"
      ],
      [
        "Ġthe",
        "y"
      ],
      [
        "o",
        "re"
      ],
      [
        "Ġw",
        "hat"
      ],
      [
        "Ġu",
        "p"
      ],
      [
        "he",
        "re"
      ],
      [
        "Ġs",
        "a"
      ],
      [
        "Ġs",
        "he"
      ],
      [
        "Ġn",
        "e"
      ],
      [
        "Ġ",
        "1"
      ],
      [
        "Ġ",
        "\""
      ],
      [
        "oo",
        "k"
      ],
      [
        "u",
        "m"
      ],
      [
        "Ġs",
        "o"
      ],
      [
        "Ġm",
        "y"
      ],
      [
        "Ġha",
        "d"
      ],
      [
        "r",
        "om"
      ],
      [
        "Ġa",
        "ll"
      ],
      [
        "Ġ",
        "j"
      ],
      [
        "â",
        "Ģ"
      ],
      [
        "ou",
        "r"
      ],
      [
        "Ġd",
        "on"
      ],
      [
        "Ġc",
        "an"
      ],
      [
        "he",
        "n"
      ],
      [
        "g",
        "e"
      ],
      [
        "p",
        "p"
      ],
      [
        "Ġ",
        "W"
      ],
      [
        "i",
        "e"
      ],
      [
        "ea",
        "h"
      ],
      [
        "Ġ",
        "D"
      ],
      [
        "Ġd",
        "e"
      ],
      [
        "Ġthe",
        "re"
      ],
      [
        "Ġ",
        "R"
      ],
      [
        "Ġyou",
        "r"
      ],
      [
        "r",
        "y"
      ],
      [
        "a",
        "in"
      ],
      [
        "u",
        "l"
      ],
      [
        "Ġ",
        "r"
      ],
      [
        "o",
        "l"
      ],
      [
        "Ġ",
        "Ġ"
      ],
      [
        "ac",
        "k"
      ],
      [
        "oo",
        "d"
      ],
      [
        "Ġa",
        "b"
      ],
      [
        "Ġli",
        "ke"
      ],
      [
        "Ġ",
        "G"
      ],
      [
        "i",
        "ght"
      ],
      [
        "Ġ",
        "out"
      ],
      [
        "Ġh",
        "im"
      ],
      [
        "Ġ",
        "F"
      ],
      [
        "Ġb",
        "ut"
      ],
      [
        "a",
        "ke"
      ],
      [
        "ar",
        "t"
      ],
      [
        "Ġf",
        "rom"
      ],
      [
        "re",
        "d"
      ],
      [
        "Ġa",
        "l"
      ],
      [
        "e",
        "l"
      ],
      [
        "Ġs",
        "h"
      ],
      [
        "Ġd",
        "id"
      ],
      [
        "at",
        "ion"
      ],
      [
        "Ġ",
        "2"
      ],
      [
        "ha",
        "n"
      ],
      [
        "a",
        "b"
      ],
      [
        "ver",
        "y"
      ],
      [
        "on",
        "e"
      ],
      [
        "Ġp",
        "l"
      ],
      [
        "i",
        "g"
      ],
      [
        "es",
        "t"
      ],
      [
        "T",
        "he"
      ],
      [
        "'",
        "re"
      ],
      [
        "'",
        "m"
      ],
      [
        "o",
        "s"
      ],
      [
        "Y",
        "ou"
      ],
      [
        "e",
        "m"
      ],
      [
        "ri",
        "ght"
      ],
      [
        "es",
        "s"
      ],
      [
        "er",
        "s"
      ],
      [
        "Ġ",
        "N"
      ],
      [
        "w",
        "hat"
      ],
      [
        "in",
        "k"
      ],
      [
        "h",
        "i"
      ],
      [
        "Ġwe",
        "re"
      ],
      [
        "is",
        "t"
      ],
      [
        "Ġ",
        "L"
      ],
      [
        "Ġ",
        "E"
      ],
      [
        "Ġg",
        "et"
      ],
      [
        "ou",
        "nd"
      ],
      [
        "Ġ",
        "J"
      ],
      [
        "am",
        "e"
      ],
      [
        "Ġb",
        "y"
      ],
      [
        "on",
        "g"
      ],
      [
        "it",
        "t"
      ],
      [
        "Ġs",
        "u"
      ],
      [
        "Ġsa",
        "id"
      ],
      [
        "c",
        "k"
      ],
      [
        "in",
        "d"
      ],
      [
        "t",
        "her"
      ],
      [
        "q",
        "u"
      ],
      [
        "Ġo",
        "r"
      ],
      [
        "n",
        "a"
      ],
      [
        "Ġw",
        "or"
      ],
      [
        "re",
        "s"
      ],
      [
        "n",
        "t"
      ],
      [
        "ĠT",
        "he"
      ],
      [
        "Ġthe",
        "m"
      ],
      [
        "as",
        "t"
      ],
      [
        "Ġab",
        "out"
      ],
      [
        "i",
        "ve"
      ],
      [
        "Ġc",
        "om"
      ],
      [
        "b",
        "er"
      ],
      [
        "y",
        "ou"
      ],
      [
        "Ġs",
        "ome"
      ],
      [
        "ar",
        "d"
      ],
      [
        "xx",
        "x"
      ],
      [
        "Ġs",
        "p"
      ],
      [
        "us",
        "e"
      ],
      [
        "o",
        "h"
      ],
      [
        "e",
        "p"
      ],
      [
        "a",
        "k"
      ],
      [
        "Ġ",
        "v"
      ],
      [
        "ow",
        "n"
      ],
      [
        "a",
        "u"
      ],
      [
        "Ġw",
        "ant"
      ],
      [
        "Ġwh",
        "o"
      ],
      [
        "all",
        "y"
      ],
      [
        "Ġc",
        "on"
      ],
      [
        "at",
        "e"
      ],
      [
        "ic",
        "e"
      ],
      [
        "Ġj",
        "ust"
      ],
      [
        "Ġth",
        "ink"
      ],
      [
        "Ġw",
        "ould"
      ],
      [
        "Ġhe",
        "re"
      ],
      [
        "Ġ",
        "O"
      ],
      [
        "y",
        "eah"
      ],
      [
        "f",
        "e"
      ],
      [
        "k",
        "ay"
      ],
      [
        "e",
        "ar"
      ],
      [
        "'",
        "ll"
      ],
      [
        "Ġse",
        "e"
      ],
      [
        "Ġan",
        "y"
      ],
      [
        "o",
        "d"
      ],
      [
        "ic",
        "k"
      ],
      [
        "ou",
        "gh"
      ],
      [
        "im",
        "e"
      ],
      [
        "Ġm",
        "an"
      ],
      [
        "a",
        "p"
      ],
      [
        "Ġt",
        "w"
      ],
      [
        "Ġ",
        "if"
      ],
      [
        "a",
        "g"
      ],
      [
        "Ġe",
        "x"
      ],
      [
        "Ġw",
        "hen"
      ],
      [
        "Ġ2",
        "0"
      ],
      [
        "Ġ",
        "("
      ],
      [
        "ic",
        "h"
      ],
      [
        "Ġg",
        "ot"
      ],
      [
        "itt",
        "le"
      ],
      [
        "h",
        "ing"
      ],
      [
        "Ġ1",
        "9"
      ],
      [
        "or",
        "t"
      ],
      [
        "Ġs",
        "ay"
      ],
      [
        "Ġ",
        "right"
      ],
      [
        "]",
        "."
      ],
      [
        "Ġl",
        "ook"
      ],
      [
        "Ġ",
        "us"
      ],
      [
        "v",
        "en"
      ],
      [
        "Ġw",
        "ill"
      ],
      [
        "I",
        "t"
      ],
      [
        "in",
        "e"
      ],
      [
        "I",
        "N"
      ],
      [
        "ĠH",
        "e"
      ],
      [
        "ou",
        "s"
      ],
      [
        "Ġl",
        "ittle"
      ],
      [
        "A",
        "R"
      ],
      [
        "id",
        "e"
      ],
      [
        ".",
        "\""
      ],
      [
        "c",
        "a"
      ],
      [
        "t",
        "o"
      ],
      [
        "Ġ",
        "["
      ],
      [
        "o",
        "st"
      ],
      [
        "-",
        "-"
      ],
      [
        "Ġ",
        "K"
      ],
      [
        "Ġa",
        "g"
      ],
      [
        "Ġp",
        "ro"
      ],
      [
        "Ġto",
        "o"
      ],
      [
        "in",
        "t"
      ],
      [
        "Ġno",
        "w"
      ],
      [
        "i",
        "es"
      ],
      [
        "it",
        "y"
      ],
      [
        "w",
        "ay"
      ],
      [
        "Ġbe",
        "en"
      ],
      [
        "Ġt",
        "ime"
      ],
      [
        "it",
        "e"
      ],
      [
        "Ġp",
        "e"
      ],
      [
        "ĠI",
        "t"
      ],
      [
        "Ġa",
        "r"
      ],
      [
        "Ġb",
        "ack"
      ],
      [
        "Ġ",
        "xxx"
      ],
      [
        "Ġm",
        "ore"
      ],
      [
        "n",
        "e"
      ],
      [
        "Ġc",
        "ould"
      ],
      [
        "Ġthe",
        "n"
      ],
      [
        "Ġc",
        "l"
      ],
      [
        "l",
        "f"
      ],
      [
        "Ġha",
        "s"
      ],
      [
        "Ġg",
        "ood"
      ],
      [
        "re",
        "e"
      ],
      [
        "Ġd",
        "own"
      ],
      [
        "Ġgo",
        "ing"
      ],
      [
        "ac",
        "e"
      ],
      [
        "u",
        "h"
      ],
      [
        "Ġtw",
        "o"
      ],
      [
        "o",
        "se"
      ],
      [
        "Ġthe",
        "ir"
      ],
      [
        "M",
        "AR"
      ],
      [
        "t",
        "he"
      ],
      [
        "Ġ",
        "very"
      ],
      [
        "Ġo",
        "ver"
      ],
      [
        "a",
        "re"
      ],
      [
        "re",
        "at"
      ],
      [
        "is",
        "h"
      ],
      [
        "Ġwh",
        "ich"
      ],
      [
        "H",
        "e"
      ],
      [
        "Ġ",
        "ro"
      ],
      [
        "o",
        "ve"
      ],
      [
        "A",
        "nd"
      ],
      [
        "i",
        "an"
      ],
      [
        "Ġof",
        "f"
      ],
      [
        "e",
        "nd"
      ],
      [
        "ca",
        "use"
      ],
      [
        "Ġo",
        "ther"
      ],
      [
        "al",
        "k"
      ],
      [
        "h",
        "y"
      ],
      [
        "ĠĠ",
        "ĠĠ"
      ],
      [
        "Ġa",
        "f"
      ],
      [
        "Ġt",
        "r"
      ],
      [
        "u",
        "re"
      ],
      [
        "t",
        "hat"
      ],
      [
        "Ġ",
        "U"
      ],
      [
        "op",
        "le"
      ],
      [
        "u",
        "d"
      ],
      [
        "Ġth",
        "ing"
      ],
      [
        "Ġp",
        "ut"
      ],
      [
        "o",
        "y"
      ],
      [
        "ot",
        "her"
      ],
      [
        "w",
        "e"
      ],
      [
        "au",
        "gh"
      ],
      [
        "s",
        "o"
      ],
      [
        "as",
        "e"
      ],
      [
        "f",
        "t"
      ],
      [
        "Ġb",
        "l"
      ],
      [
        "Ġ",
        "qu"
      ],
      [
        "on",
        "d"
      ],
      [
        "ar",
        "k"
      ],
      [
        ",",
        "\""
      ],
      [
        "W",
        "hat"
      ],
      [
        "m",
        "ent"
      ],
      [
        "om",
        "et"
      ],
      [
        "t",
        "y"
      ],
      [
        "i",
        "a"
      ],
      [
        "he",
        "d"
      ],
      [
        "or",
        "n"
      ],
      [
        "IN",
        "V"
      ],
      [
        "'",
        "ve"
      ],
      [
        "Ġf",
        "e"
      ],
      [
        "Ġl",
        "e"
      ],
      [
        "Ġh",
        "ow"
      ],
      [
        "p",
        "e"
      ],
      [
        "Ġpe",
        "ople"
      ],
      [
        "m",
        "y"
      ],
      [
        "ir",
        "st"
      ],
      [
        "ou",
        "ght"
      ],
      [
        "on",
        "na"
      ],
      [
        "u",
        "e"
      ],
      [
        "h",
        "o"
      ],
      [
        "Ġb",
        "r"
      ],
      [
        "ur",
        "n"
      ],
      [
        "ad",
        "e"
      ],
      [
        "v",
        "ed"
      ],
      [
        "at",
        "er"
      ],
      [
        "ar",
        "y"
      ],
      [
        "Ġin",
        "to"
      ],
      [
        "Ġc",
        "ome"
      ],
      [
        "Ġg",
        "r"
      ],
      [
        "Ġpl",
        "ay"
      ],
      [
        "y",
        "es"
      ],
      [
        "Ġm",
        "ake"
      ],
      [
        "Ġc",
        "all"
      ],
      [
        "b",
        "le"
      ],
      [
        "a",
        "ge"
      ],
      [
        "Ġg",
        "onna"
      ],
      [
        "ĠS",
        "t"
      ],
      [
        "Ġw",
        "ay"
      ],
      [
        "as",
        "s"
      ],
      [
        "Ġt",
        "han"
      ],
      [
        "Ġd",
        "ay"
      ],
      [
        "W",
        "e"
      ],
      [
        "or",
        "d"
      ],
      [
        "Ġ",
        "er"
      ],
      [
        "is",
        "s"
      ],
      [
        "Ġwor",
        "k"
      ],
      [
        "v",
        "ing"
      ],
      [
        "c",
        "i"
      ],
      [
        "Ġag",
        "ain"
      ],
      [
        "b",
        "e"
      ],
      [
        "Ġs",
        "omet"
      ],
      [
        "R",
        "O"
      ],
      [
        "p",
        "l"
      ],
      [
        "l",
        "augh"
      ],
      [
        "ou",
        "nt"
      ],
      [
        "Ġt",
        "ell"
      ],
      [
        "Ġ",
        "'"
      ],
      [
        "Ġme",
        "an"
      ],
      [
        "o",
        "kay"
      ],
      [
        "o",
        "ll"
      ],
      [
        "Ġf",
        "irst"
      ],
      [
        "I",
        "S"
      ],
      [
        "Ġ",
        "en"
      ],
      [
        "f",
        "f"
      ],
      [
        "r",
        "an"
      ],
      [
        "i",
        "re"
      ],
      [
        "Ġw",
        "here"
      ],
      [
        "n",
        "g"
      ],
      [
        "m",
        "er"
      ],
      [
        "se",
        "lf"
      ],
      [
        "Ġaf",
        "ter"
      ],
      [
        "v",
        "es"
      ],
      [
        "Ġth",
        "r"
      ],
      [
        "Ġw",
        "r"
      ],
      [
        "Ġa",
        "m"
      ],
      [
        "at",
        "her"
      ],
      [
        "w",
        "n"
      ],
      [
        "h",
        "is"
      ],
      [
        "N",
        "o"
      ],
      [
        "Ġt",
        "ake"
      ],
      [
        "p",
        "s"
      ],
      [
        "Ġp",
        "art"
      ],
      [
        "Ġb",
        "et"
      ],
      [
        "p",
        "t"
      ],
      [
        "p",
        "er"
      ],
      [
        "Ġ",
        "V"
      ],
      [
        "Ġl",
        "et"
      ],
      [
        "Ġdo",
        "es"
      ],
      [
        "u",
        "ch"
      ],
      [
        "ac",
        "h"
      ],
      [
        "âĢ",
        "Ļ"
      ],
      [
        "O",
        "h"
      ],
      [
        "Ġ",
        "Y"
      ],
      [
        "Ġy",
        "ear"
      ],
      [
        "Ġg",
        "u"
      ],
      [
        "Ġd",
        "is"
      ],
      [
        "oo",
        "l"
      ],
      [
        "Ġne",
        "ed"
      ],
      [
        "Ġdid",
        "n"
      ],
      [
        "f",
        "ore"
      ],
      [
        "S",
        "IS"
      ],
      [
        "Ġp",
        "r"
      ],
      [
        "Ġha",
        "pp"
      ],
      [
        "th",
        "ing"
      ],
      [
        "re",
        "n"
      ],
      [
        "Ġe",
        "very"
      ],
      [
        "laugh",
        "s"
      ],
      [
        "l",
        "es"
      ],
      [
        "Ġon",
        "ly"
      ],
      [
        "u",
        "b"
      ],
      [
        "Ġu",
        "n"
      ],
      [
        "B",
        "ut"
      ],
      [
        "Ġsh",
        "ould"
      ],
      [
        "ou",
        "se"
      ],
      [
        "h",
        "m"
      ],
      [
        "Ġ",
        "our"
      ],
      [
        "nd",
        "er"
      ],
      [
        "Ġm",
        "ade"
      ],
      [
        "d",
        "ay"
      ],
      [
        "Ġsomet",
        "hing"
      ],
      [
        "âĢ",
        "ľ"
      ],
      [
        "Ġf",
        "l"
      ],
      [
        "u",
        "ll"
      ],
      [
        "ac",
        "t"
      ],
      [
        "Ġm",
        "uch"
      ],
      [
        "ad",
        "y"
      ],
      [
        "res",
        "s"
      ],
      [
        "ĠS",
        "he"
      ],
      [
        "ab",
        "le"
      ],
      [
        "T",
        "hat"
      ],
      [
        "z",
        "z"
      ],
      [
        "B",
        "RO"
      ],
      [
        "t",
        "e"
      ],
      [
        "os",
        "s"
      ],
      [
        "Ġc",
        "ha"
      ],
      [
        "o",
        "g"
      ],
      [
        "Ġt",
        "alk"
      ],
      [
        "Ġt",
        "e"
      ],
      [
        "Ġp",
        "re"
      ],
      [
        "m",
        "an"
      ],
      [
        "Ġl",
        "ong"
      ],
      [
        "or",
        "y"
      ],
      [
        "Ġ20",
        "1"
      ],
      [
        "r",
        "u"
      ],
      [
        "Ġc",
        "ar"
      ],
      [
        "Ġwe",
        "ll"
      ],
      [
        "Ġc",
        "o"
      ],
      [
        "t",
        "ing"
      ],
      [
        "i",
        "ed"
      ],
      [
        "ion",
        "s"
      ],
      [
        "at",
        "ed"
      ],
      [
        "Ġha",
        "nd"
      ],
      [
        "ir",
        "l"
      ],
      [
        "an",
        "g"
      ],
      [
        "a",
        "v"
      ],
      [
        "Ġw",
        "ent"
      ],
      [
        "ic",
        "t"
      ],
      [
        "ad",
        "d"
      ],
      [
        "Ġthe",
        "se"
      ],
      [
        "Ġc",
        "hi"
      ],
      [
        "i",
        "x"
      ],
      [
        "W",
        "ell"
      ],
      [
        "Ġthr",
        "ough"
      ],
      [
        "Ġre",
        "ally"
      ],
      [
        "¿",
        "½"
      ],
      [
        "ï",
        "¿½"
      ],
      [
        "c",
        "c"
      ],
      [
        "g",
        "et"
      ],
      [
        "Y",
        "eah"
      ],
      [
        "Ġ",
        "im"
      ],
      [
        "i",
        "le"
      ],
      [
        "Ġbe",
        "fore"
      ],
      [
        "Ġcom",
        "p"
      ],
      [
        "'",
        "d"
      ],
      [
        "Ġa",
        "d"
      ],
      [
        "Ġbe",
        "cause"
      ],
      [
        "Ġne",
        "ver"
      ],
      [
        "ĠM",
        "r"
      ],
      [
        "Ġchi",
        "ld"
      ],
      [
        "Ġs",
        "ha"
      ],
      [
        "Ġth",
        "ree"
      ],
      [
        "is",
        "e"
      ],
      [
        "od",
        "y"
      ],
      [
        "Ġo",
        "ld"
      ],
      [
        "Ġp",
        "o"
      ],
      [
        "Ġb",
        "ig"
      ],
      [
        "Ġc",
        "ame"
      ],
      [
        "an",
        "na"
      ],
      [
        "w",
        "here"
      ],
      [
        "Ġm",
        "o"
      ],
      [
        "Ġb",
        "oy"
      ],
      [
        "Ġre",
        "m"
      ],
      [
        "l",
        "i"
      ],
      [
        "Ġs",
        "c"
      ],
      [
        "Ġst",
        "ill"
      ],
      [
        "ĠI",
        "n"
      ],
      [
        "Ġal",
        "so"
      ],
      [
        "Ġe",
        "at"
      ],
      [
        "u",
        "p"
      ],
      [
        "Ġg",
        "reat"
      ],
      [
        "Ġu",
        "nder"
      ],
      [
        "?",
        "\""
      ],
      [
        "Ġas",
        "k"
      ],
      [
        "Ġ",
        "ke"
      ],
      [
        "f",
        "ul"
      ],
      [
        "Ġa",
        "way"
      ],
      [
        "Ġs",
        "m"
      ],
      [
        "Ġhe",
        "l"
      ],
      [
        "c",
        "l"
      ],
      [
        "u",
        "ck"
      ],
      [
        "S",
        "o"
      ],
      [
        "at",
        "ch"
      ],
      [
        "Ġth",
        "ought"
      ],
      [
        "en",
        "ce"
      ],
      [
        "Ġg",
        "irl"
      ],
      [
        "Ġe",
        "ven"
      ],
      [
        "k",
        "s"
      ],
      [
        "ĠU",
        "n"
      ],
      [
        "on",
        "s"
      ],
      [
        "ri",
        "ed"
      ],
      [
        "i",
        "p"
      ],
      [
        "Ġa",
        "pp"
      ],
      [
        "w",
        "ard"
      ],
      [
        "d",
        "o"
      ],
      [
        "u",
        "nd"
      ],
      [
        "Ġa",
        "ct"
      ],
      [
        "no",
        "ther"
      ],
      [
        "Ġh",
        "ome"
      ],
      [
        "i",
        "z"
      ],
      [
        "Ġl",
        "ast"
      ],
      [
        "Ġne",
        "w"
      ],
      [
        "Ġp",
        "er"
      ],
      [
        "Ġw",
        "anna"
      ],
      [
        "Ġn",
        "ame"
      ],
      [
        "Ġc",
        "h"
      ],
      [
        "Ġhapp",
        "en"
      ],
      [
        "e",
        "ct"
      ],
      [
        "g",
        "g"
      ],
      [
        "0",
        "0"
      ],
      [
        "l",
        "and"
      ],
      [
        "Ġb",
        "u"
      ],
      [
        "Ġm",
        "ay"
      ],
      [
        "U",
        "R"
      ],
      [
        "or",
        "s"
      ],
      [
        "om",
        "my"
      ],
      [
        "em",
        "ber"
      ],
      [
        "at",
        "h"
      ],
      [
        "a",
        "it"
      ],
      [
        "o",
        "b"
      ],
      [
        "b",
        "ut"
      ],
      [
        "âĢ",
        "Ŀ"
      ],
      [
        "Ġst",
        "art"
      ],
      [
        "Ġt",
        "urn"
      ],
      [
        "i",
        "ly"
      ],
      [
        "Ġthing",
        "s"
      ],
      [
        "a",
        "h"
      ],
      [
        "ig",
        "n"
      ],
      [
        "Ġdo",
        "ing"
      ],
      [
        "o",
        "ld"
      ],
      [
        "ri",
        "end"
      ],
      [
        "Ġman",
        "y"
      ],
      [
        "at",
        "es"
      ],
      [
        "o",
        "ck"
      ],
      [
        "Ġth",
        "ose"
      ],
      [
        "Ġl",
        "ea"
      ],
      [
        "Ġm",
        "ust"
      ],
      [
        "Ġb",
        "ook"
      ],
      [
        "ing",
        "s"
      ],
      [
        "he",
        "s"
      ],
      [
        "ch",
        "ool"
      ],
      [
        "Ġa",
        "nother"
      ],
      [
        "n",
        "y"
      ],
      [
        "un",
        "g"
      ],
      [
        "ĠC",
        "h"
      ],
      [
        "Ġcon",
        "t"
      ],
      [
        "y",
        "s"
      ],
      [
        "Ġh",
        "ouse"
      ],
      [
        "Ġhel",
        "p"
      ],
      [
        "Ġm",
        "other"
      ],
      [
        "an",
        "s"
      ],
      [
        "Ġs",
        "er"
      ],
      [
        "Ġg",
        "ive"
      ],
      [
        "w",
        "ell"
      ],
      [
        "h",
        "ow"
      ],
      [
        "i",
        "ous"
      ],
      [
        "it",
        "ed"
      ],
      [
        "an",
        "ce"
      ],
      [
        "ab",
        "y"
      ],
      [
        "x",
        "t"
      ],
      [
        "Ġf",
        "ind"
      ],
      [
        "Ġc",
        "r"
      ],
      [
        "Ġhe",
        "ad"
      ],
      [
        "le",
        "ase"
      ],
      [
        "a",
        "ir"
      ],
      [
        "ar",
        "s"
      ],
      [
        "i",
        "v"
      ],
      [
        "a",
        "ve"
      ],
      [
        "Ġt",
        "ry"
      ],
      [
        "Ġo",
        "wn"
      ],
      [
        "i",
        "gh"
      ],
      [
        "Y",
        "es"
      ],
      [
        "ĠA",
        "nd"
      ],
      [
        "t",
        "s"
      ],
      [
        "Ġn",
        "ight"
      ],
      [
        "p",
        "en"
      ],
      [
        "ra",
        "in"
      ],
      [
        "Ġw",
        "on"
      ],
      [
        "Ġse",
        "c"
      ],
      [
        "one",
        "y"
      ],
      [
        "r",
        "d"
      ],
      [
        ".",
        "]"
      ],
      [
        "Ġcall",
        "ed"
      ],
      [
        "Ġbe",
        "l"
      ],
      [
        "Ġre",
        "s"
      ],
      [
        "S",
        "he"
      ],
      [
        "a",
        "il"
      ],
      [
        "o",
        "c"
      ],
      [
        "ĠĠĠĠ",
        "ĠĠĠĠ"
      ],
      [
        "Ġk",
        "ind"
      ],
      [
        "Ġsh",
        "ow"
      ],
      [
        "i",
        "ld"
      ],
      [
        "Ġyear",
        "s"
      ],
      [
        "UR",
        "S"
      ],
      [
        "a",
        "w"
      ],
      [
        "ĠC",
        "hi"
      ],
      [
        "Ġc",
        "han"
      ],
      [
        "Ġf",
        "our"
      ],
      [
        "Ġl",
        "ove"
      ],
      [
        "e",
        "w"
      ],
      [
        "Ġf",
        "riend"
      ],
      [
        "b",
        "ody"
      ],
      [
        "Ġ",
        "3"
      ],
      [
        "h",
        "uh"
      ],
      [
        "Ġf",
        "ound"
      ],
      [
        "ĠM",
        "ar"
      ],
      [
        "ic",
        "al"
      ],
      [
        "er",
        "t"
      ],
      [
        "Ġe",
        "l"
      ],
      [
        "Ġdon",
        "e"
      ],
      [
        "Ġbet",
        "ter"
      ],
      [
        "ak",
        "ing"
      ],
      [
        "Ġe",
        "nd"
      ],
      [
        "T",
        "his"
      ],
      [
        "s",
        "ide"
      ],
      [
        "Ġm",
        "ight"
      ],
      [
        "Ġwh",
        "y"
      ],
      [
        "Ġre",
        "ad"
      ],
      [
        "Ġre",
        "c"
      ],
      [
        "ak",
        "es"
      ],
      [
        "I",
        "n"
      ],
      [
        "Ġc",
        "he"
      ],
      [
        "in",
        "ce"
      ],
      [
        "Ġcom",
        "m"
      ],
      [
        "way",
        "s"
      ],
      [
        "ver",
        "s"
      ],
      [
        "al",
        "s"
      ],
      [
        "E",
        "R"
      ],
      [
        "Ġb",
        "o"
      ],
      [
        "Ġm",
        "in"
      ],
      [
        "Ġo",
        "kay"
      ],
      [
        "ic",
        "an"
      ],
      [
        "f",
        "or"
      ],
      [
        "âĢ",
        "ĵ"
      ],
      [
        "Ġsu",
        "ch"
      ],
      [
        "Ġar",
        "ound"
      ],
      [
        "The",
        "y"
      ],
      [
        "Ġfe",
        "el"
      ],
      [
        "Ġpl",
        "ace"
      ],
      [
        "Ġs",
        "l"
      ],
      [
        "Ġb",
        "ot"
      ],
      [
        "in",
        "a"
      ],
      [
        "Ġm",
        "ost"
      ],
      [
        "u",
        "g"
      ],
      [
        "le",
        "t"
      ],
      [
        "Ġat",
        "t"
      ],
      [
        "Ġbe",
        "ing"
      ],
      [
        "p",
        "ort"
      ],
      [
        "Ġg",
        "l"
      ],
      [
        "id",
        "ent"
      ],
      [
        "Ġs",
        "chool"
      ],
      [
        "Ġto",
        "ld"
      ],
      [
        "Ġro",
        "om"
      ],
      [
        "T",
        "here"
      ],
      [
        "e",
        "ver"
      ],
      [
        "c",
        "es"
      ],
      [
        "Ġc",
        "ount"
      ],
      [
        "Ġit",
        "s"
      ],
      [
        "Ġd",
        "if"
      ],
      [
        "Ġp",
        "res"
      ],
      [
        "d",
        "s"
      ],
      [
        "am",
        "p"
      ],
      [
        "Ġ20",
        "2"
      ],
      [
        "Ġsu",
        "pp"
      ],
      [
        "Ġany",
        "thing"
      ],
      [
        "re",
        "nt"
      ],
      [
        "Ġsu",
        "re"
      ],
      [
        "e",
        "e"
      ],
      [
        "Ġf",
        "ather"
      ],
      [
        "m",
        "p"
      ],
      [
        "Ġc",
        "are"
      ],
      [
        "Ġc",
        "our"
      ],
      [
        "Ġli",
        "fe"
      ],
      [
        "Ġel",
        "se"
      ],
      [
        "Ġd",
        "es"
      ],
      [
        "l",
        "ed"
      ],
      [
        "in",
        "n"
      ],
      [
        "Ġke",
        "ep"
      ],
      [
        "Ġw",
        "ater"
      ],
      [
        "Ġbe",
        "g"
      ],
      [
        "u",
        "ally"
      ],
      [
        "Ġs",
        "il"
      ],
      [
        "w",
        "hy"
      ],
      [
        "Ġn",
        "um"
      ],
      [
        "on",
        "t"
      ],
      [
        "Ġf",
        "in"
      ],
      [
        "m",
        "hm"
      ],
      [
        "r",
        "ow"
      ],
      [
        "ct",
        "ion"
      ],
      [
        "re",
        "am"
      ],
      [
        "ĠThe",
        "y"
      ],
      [
        "Ġl",
        "ot"
      ],
      [
        "Ġe",
        "ver"
      ],
      [
        "Ġne",
        "xt"
      ],
      [
        "ul",
        "t"
      ],
      [
        "im",
        "es"
      ],
      [
        "um",
        "p"
      ],
      [
        "or",
        "ry"
      ],
      [
        "u",
        "c"
      ],
      [
        "Ġ",
        "You"
      ],
      [
        "Ġm",
        "en"
      ],
      [
        "Ġs",
        "ame"
      ],
      [
        "Ġe",
        "ar"
      ],
      [
        "ĠA",
        "mer"
      ],
      [
        "d",
        "e"
      ],
      [
        "Ġal",
        "ways"
      ],
      [
        "!",
        "\""
      ],
      [
        "Ġf",
        "ive"
      ],
      [
        "ut",
        "e"
      ],
      [
        "Ġwh",
        "ile"
      ],
      [
        "Ġbe",
        "c"
      ],
      [
        "Ġsa",
        "w"
      ],
      [
        "ĠB",
        "r"
      ],
      [
        "A",
        "N"
      ],
      [
        "Ġ",
        "ra"
      ],
      [
        "ation",
        "s"
      ],
      [
        "Ġtoo",
        "k"
      ],
      [
        "l",
        "ook"
      ],
      [
        "en",
        "s"
      ],
      [
        "m",
        "ber"
      ],
      [
        "ĠB",
        "ut"
      ],
      [
        "s",
        "s"
      ],
      [
        "Ġs",
        "et"
      ],
      [
        "Ġn",
        "ice"
      ],
      [
        "Ġp",
        "ol"
      ],
      [
        "e",
        "c"
      ],
      [
        "H",
        "ow"
      ],
      [
        "Ġus",
        "ed"
      ],
      [
        "Ġo",
        "pen"
      ],
      [
        "re",
        "st"
      ],
      [
        "w",
        "ho"
      ],
      [
        "l",
        "ing"
      ],
      [
        "y",
        "e"
      ],
      [
        "it",
        "ion"
      ],
      [
        "Ġse",
        "em"
      ],
      [
        "th",
        "is"
      ],
      [
        "H",
        "E"
      ],
      [
        "c",
        "an"
      ],
      [
        "ï¿½",
        "ï¿½"
      ],
      [
        "Ġdoes",
        "n"
      ],
      [
        "m",
        "s"
      ],
      [
        "Ġb",
        "aby"
      ],
      [
        "Ġw",
        "om"
      ],
      [
        "I",
        "f"
      ],
      [
        "the",
        "y"
      ],
      [
        "Ġb",
        "re"
      ],
      [
        "Ġle",
        "ft"
      ],
      [
        "Ġf",
        "am"
      ],
      [
        "Ġb",
        "us"
      ],
      [
        "Ġp",
        "ie"
      ],
      [
        "v",
        "ent"
      ],
      [
        "Ġy",
        "eah"
      ],
      [
        "is",
        "ter"
      ],
      [
        "Ġs",
        "w"
      ],
      [
        "oo",
        "t"
      ],
      [
        "Ġpre",
        "t"
      ],
      [
        "Ġm",
        "ag"
      ],
      [
        "Ġr",
        "un"
      ],
      [
        "ation",
        "al"
      ],
      [
        "Ġw",
        "ait"
      ],
      [
        "Ġm",
        "on"
      ],
      [
        "ound",
        "s"
      ],
      [
        "ve",
        "l"
      ],
      [
        "W",
        "hy"
      ],
      [
        "ter",
        "n"
      ],
      [
        "re",
        "t"
      ],
      [
        "Ġs",
        "ix"
      ],
      [
        "Ġu",
        "m"
      ],
      [
        "out",
        "h"
      ],
      [
        "Ġst",
        "op"
      ],
      [
        "Ġd",
        "r"
      ],
      [
        "Ġf",
        "ar"
      ],
      [
        "Ġu",
        "nt"
      ],
      [
        "D",
        "o"
      ],
      [
        "get",
        "her"
      ],
      [
        "is",
        "hed"
      ],
      [
        "Ġwor",
        "ld"
      ],
      [
        "Ġ",
        "."
      ],
      [
        "Ġe",
        "le"
      ],
      [
        "Ġre",
        "al"
      ],
      [
        "C",
        "O"
      ],
      [
        "und",
        "red"
      ],
      [
        "c",
        "le"
      ],
      [
        "au",
        "ght"
      ],
      [
        "Ġf",
        "un"
      ],
      [
        "Ġ",
        "use"
      ],
      [
        "Ġc",
        "le"
      ],
      [
        "ĠUn",
        "ited"
      ],
      [
        "ri",
        "es"
      ],
      [
        "Ġha",
        "rd"
      ],
      [
        "Ġnum",
        "ber"
      ],
      [
        "Ġm",
        "oney"
      ],
      [
        "Ġk",
        "ne"
      ],
      [
        "Ġh",
        "undred"
      ],
      [
        "Ġs",
        "ing"
      ],
      [
        "us",
        "ic"
      ],
      [
        "Ġdif",
        "fe"
      ],
      [
        "ou",
        "n"
      ],
      [
        "Ġp",
        "h"
      ],
      [
        "Ġw",
        "ar"
      ],
      [
        "Ġm",
        "om"
      ],
      [
        "n",
        "ess"
      ],
      [
        "g",
        "r"
      ],
      [
        "ell",
        "ow"
      ],
      [
        "Ġbel",
        "ie"
      ],
      [
        "Ġst",
        "ay"
      ],
      [
        "s",
        "he"
      ],
      [
        "in",
        "s"
      ],
      [
        "op",
        "e"
      ],
      [
        "Ġo",
        "b"
      ],
      [
        "Ġwe",
        "e"
      ],
      [
        "t",
        "here"
      ],
      [
        "ow",
        "er"
      ],
      [
        "Ġm",
        "ar"
      ],
      [
        "pe",
        "ct"
      ],
      [
        "ers",
        "on"
      ],
      [
        "ĠK",
        "ing"
      ],
      [
        "Ġa",
        "cc"
      ],
      [
        "Ġst",
        "ick"
      ],
      [
        "Ġ20",
        "0"
      ],
      [
        "Ġre",
        "t"
      ],
      [
        "Ġbl",
        "ack"
      ],
      [
        "Ġg",
        "i"
      ],
      [
        "g",
        "er"
      ],
      [
        "we",
        "en"
      ],
      [
        "han",
        "k"
      ],
      [
        "E",
        "S"
      ],
      [
        "Ġknow",
        "n"
      ],
      [
        "an",
        "c"
      ],
      [
        "C",
        "hi"
      ],
      [
        "m",
        "e"
      ],
      [
        "Ġto",
        "gether"
      ],
      [
        "le",
        "ep"
      ],
      [
        "Ġa",
        "c"
      ],
      [
        "Ġhappen",
        "ed"
      ],
      [
        "et",
        "s"
      ],
      [
        "Ġen",
        "ough"
      ],
      [
        "Ġcour",
        "se"
      ],
      [
        "Ġb",
        "ir"
      ],
      [
        "t",
        "on"
      ],
      [
        "le",
        "as"
      ],
      [
        "r",
        "ist"
      ],
      [
        "Ġsay",
        "s"
      ],
      [
        "ĠM",
        "ark"
      ],
      [
        "i",
        "al"
      ],
      [
        "t",
        "a"
      ],
      [
        "Ġup",
        "on"
      ],
      [
        "Ġhe",
        "ar"
      ],
      [
        "L",
        "D"
      ],
      [
        "Ġunt",
        "il"
      ],
      [
        "Ġdo",
        "g"
      ],
      [
        "orn",
        "ing"
      ],
      [
        "Ġd",
        "ied"
      ],
      [
        "ĠN",
        "ew"
      ],
      [
        "Ġyou",
        "ng"
      ],
      [
        "ĠE",
        "ng"
      ],
      [
        "Ġsec",
        "ond"
      ],
      [
        "i",
        "o"
      ],
      [
        "re",
        "w"
      ],
      [
        "Ġb",
        "est"
      ],
      [
        "p",
        "h"
      ],
      [
        "Ġnot",
        "hing"
      ],
      [
        "Ġc",
        "ol"
      ],
      [
        "t",
        "le"
      ],
      [
        "Ġth",
        "ough"
      ],
      [
        "Ġsil",
        "ver"
      ],
      [
        "d",
        "id"
      ],
      [
        "Ġb",
        "ad"
      ],
      [
        "ft",
        "a"
      ],
      [
        "Ġw",
        "alk"
      ],
      [
        "Ġask",
        "ed"
      ],
      [
        "Ġbet",
        "ween"
      ],
      [
        "Ġs",
        "ur"
      ],
      [
        "no",
        "t"
      ],
      [
        "Ġy",
        "es"
      ],
      [
        "a",
        "z"
      ],
      [
        "ĠD",
        "e"
      ],
      [
        "se",
        "e"
      ],
      [
        "i",
        "b"
      ],
      [
        "ea",
        "k"
      ],
      [
        "Ġe",
        "yes"
      ],
      [
        "Ġqu",
        "ite"
      ],
      [
        "ub",
        "l"
      ],
      [
        "i",
        "ble"
      ],
      [
        "Ġrem",
        "ember"
      ],
      [
        "ou",
        "p"
      ],
      [
        "Ġm",
        "at"
      ],
      [
        "Ġhim",
        "self"
      ],
      [
        "N",
        "ow"
      ],
      [
        "Ġchild",
        "ren"
      ],
      [
        "ĠAmer",
        "ican"
      ],
      [
        "Ġdo",
        "or"
      ],
      [
        "\"",
        "."
      ],
      [
        "u",
        "ff"
      ],
      [
        "m",
        "b"
      ],
      [
        "Ġst",
        "and"
      ],
      [
        "Ġha",
        "fta"
      ],
      [
        "j",
        "ect"
      ],
      [
        "Ġcha",
        "r"
      ],
      [
        "ĠC",
        "ha"
      ],
      [
        "Ġs",
        "ide"
      ],
      [
        "Ġb",
        "it"
      ],
      [
        "Ġm",
        "orning"
      ],
      [
        "Ġf",
        "all"
      ],
      [
        "ur",
        "ing"
      ],
      [
        "Ġv",
        "o"
      ],
      [
        "Ġb",
        "ed"
      ],
      [
        "Ġ",
        "4"
      ],
      [
        "Ġb",
        "all"
      ],
      [
        "i",
        "red"
      ],
      [
        "u",
        "res"
      ],
      [
        "Ġh",
        "old"
      ],
      [
        "Ġre",
        "l"
      ],
      [
        "Ġp",
        "lease"
      ],
      [
        "Ġpo",
        "int"
      ],
      [
        "a",
        "ut"
      ],
      [
        "Ġli",
        "ght"
      ],
      [
        "ĠF",
        "ran"
      ],
      [
        "ĠA",
        "r"
      ],
      [
        "E",
        "L"
      ],
      [
        "a",
        "le"
      ],
      [
        "O",
        "kay"
      ],
      [
        "Ġs",
        "it"
      ],
      [
        "p",
        "ut"
      ],
      [
        "an",
        "y"
      ],
      [
        "Ġk",
        "ill"
      ],
      [
        "Ġwant",
        "ed"
      ],
      [
        "t",
        "hen"
      ],
      [
        "Ġs",
        "orry"
      ],
      [
        "Ġd",
        "ist"
      ],
      [
        "Ġl",
        "ist"
      ],
      [
        "oll",
        "ow"
      ],
      [
        "ent",
        "s"
      ],
      [
        "ĠM",
        "iss"
      ],
      [
        "Ġp",
        "ass"
      ],
      [
        "c",
        "hed"
      ],
      [
        "m",
        "ed"
      ],
      [
        "or",
        "k"
      ],
      [
        "Ġp",
        "ick"
      ],
      [
        "Ġse",
        "en"
      ],
      [
        "Ġagain",
        "st"
      ],
      [
        "A",
        "ll"
      ],
      [
        "Ġcom",
        "ing"
      ],
      [
        "un",
        "e"
      ],
      [
        "Ġfe",
        "w"
      ],
      [
        "ĠA",
        "n"
      ],
      [
        "t",
        "en"
      ],
      [
        "v",
        "ie"
      ],
      [
        "Ġkne",
        "w"
      ],
      [
        "Ġbot",
        "h"
      ],
      [
        "g",
        "ed"
      ],
      [
        "en",
        "c"
      ],
      [
        "Ġf",
        "ace"
      ],
      [
        "add",
        "y"
      ],
      [
        "Ġ",
        "_"
      ],
      [
        "Ġsm",
        "all"
      ],
      [
        "Ġwith",
        "out"
      ],
      [
        "Ġhe",
        "ard"
      ],
      [
        "Ġon",
        "ce"
      ],
      [
        "Ġm",
        "ind"
      ],
      [
        "e",
        "x"
      ],
      [
        "ro",
        "ss"
      ],
      [
        "Ġ1",
        "8"
      ],
      [
        "Ġb",
        "orn"
      ],
      [
        "ter",
        "s"
      ],
      [
        "i",
        "et"
      ],
      [
        "oh",
        "n"
      ],
      [
        "Ġb",
        "ase"
      ],
      [
        "ap",
        "e"
      ],
      [
        "Ġst",
        "ory"
      ],
      [
        "Ġm",
        "il"
      ],
      [
        "Ġ",
        "ent"
      ],
      [
        "c",
        "ha"
      ],
      [
        "D",
        "on"
      ],
      [
        "m",
        "ost"
      ],
      [
        "Ġis",
        "n"
      ],
      [
        "ĠSt",
        "ates"
      ],
      [
        "ĠA",
        "l"
      ],
      [
        "Ġlook",
        "ing"
      ],
      [
        "Ġdiffe",
        "rent"
      ],
      [
        "n",
        "ing"
      ],
      [
        "Ġh",
        "ur"
      ],
      [
        "Ġto",
        "p"
      ],
      [
        ")",
        ","
      ],
      [
        "ic",
        "s"
      ],
      [
        "Ġe",
        "ach"
      ],
      [
        "ct",
        "or"
      ],
      [
        "ent",
        "y"
      ],
      [
        "IN",
        "G"
      ],
      [
        "ĠJ",
        "an"
      ],
      [
        "w",
        "h"
      ],
      [
        "f",
        "fe"
      ],
      [
        "o",
        "int"
      ],
      [
        "Ġre",
        "g"
      ],
      [
        "Ġst",
        "ud"
      ],
      [
        "Ġt",
        "er"
      ],
      [
        "ra",
        "w"
      ],
      [
        "ou",
        "d"
      ],
      [
        "m",
        "m"
      ],
      [
        "ap",
        "er"
      ],
      [
        "Ġlea",
        "ve"
      ],
      [
        "Ġst",
        "r"
      ],
      [
        "Ġcon",
        "s"
      ],
      [
        "Ġ19",
        "9"
      ],
      [
        "Ġhe",
        "art"
      ],
      [
        "en",
        "er"
      ],
      [
        "Ġto",
        "day"
      ],
      [
        "i",
        "er"
      ],
      [
        "I",
        "s"
      ],
      [
        "Ġb",
        "ro"
      ],
      [
        "M",
        "y"
      ],
      [
        "Ġs",
        "ong"
      ],
      [
        "an",
        "k"
      ],
      [
        "ĠT",
        "his"
      ],
      [
        "Ġy",
        "et"
      ],
      [
        "Ġm",
        "et"
      ],
      [
        "Ġh",
        "ung"
      ],
      [
        "Ġde",
        "c"
      ],
      [
        "Ġl",
        "ater"
      ],
      [
        "Ġre",
        "st"
      ],
      [
        "st",
        "and"
      ],
      [
        "Ġlook",
        "ed"
      ],
      [
        "Ġk",
        "id"
      ],
      [
        "Ġwho",
        "le"
      ],
      [
        "as",
        "on"
      ],
      [
        "ĠMr",
        "s"
      ],
      [
        "l",
        "ess"
      ],
      [
        "Ġe",
        "ight"
      ],
      [
        "re",
        "en"
      ],
      [
        "Ġget",
        "ting"
      ],
      [
        "or",
        "th"
      ],
      [
        "ci",
        "al"
      ],
      [
        "Ġt",
        "able"
      ],
      [
        "Ġu",
        "h"
      ],
      [
        "at",
        "ing"
      ],
      [
        "Ġd",
        "ri"
      ],
      [
        "ul",
        "ar"
      ],
      [
        "Ġpret",
        "ty"
      ],
      [
        "p",
        "r"
      ],
      [
        "Ġtalk",
        "ing"
      ],
      [
        "if",
        "e"
      ],
      [
        "Ġne",
        "ar"
      ],
      [
        "Ġw",
        "atch"
      ],
      [
        "Ġevery",
        "thing"
      ],
      [
        "Ġp",
        "erson"
      ],
      [
        "Ġf",
        "r"
      ],
      [
        "Ġhand",
        "s"
      ],
      [
        "Ġg",
        "ave"
      ],
      [
        "Ġ",
        "hat"
      ],
      [
        "it",
        "s"
      ],
      [
        "Ġc",
        "ity"
      ],
      [
        "Ġso",
        "on"
      ],
      [
        "Ġin",
        "v"
      ],
      [
        "ĠS",
        "o"
      ],
      [
        "c",
        "ome"
      ],
      [
        "Ġat",
        "e"
      ],
      [
        "Ġh",
        "uh"
      ],
      [
        "Ġ",
        "Z"
      ],
      [
        "Ġmag",
        "n"
      ],
      [
        "am",
        "es"
      ],
      [
        "Ġs",
        "k"
      ],
      [
        "Ġf",
        "ollow"
      ],
      [
        "us",
        "s"
      ],
      [
        "zz",
        "z"
      ],
      [
        "g",
        "o"
      ],
      [
        "re",
        "ady"
      ],
      [
        "ab",
        "ly"
      ],
      [
        "s",
        "h"
      ],
      [
        "ond",
        "er"
      ],
      [
        "Ġfam",
        "ily"
      ],
      [
        "Ġwas",
        "n"
      ],
      [
        "ĠT",
        "h"
      ],
      [
        "hi",
        "p"
      ],
      [
        "Ġf",
        "ood"
      ],
      [
        "Ġh",
        "igh"
      ],
      [
        "Ġs",
        "leep"
      ],
      [
        "Ġ",
        "5"
      ],
      [
        "ĠW",
        "e"
      ],
      [
        "ĠW",
        "hat"
      ],
      [
        "Ġday",
        "s"
      ],
      [
        "c",
        "o"
      ],
      [
        "ne",
        "y"
      ],
      [
        "O",
        "U"
      ],
      [
        "ert",
        "ain"
      ],
      [
        "is",
        "ion"
      ],
      [
        "Ġha",
        "ving"
      ],
      [
        "Ġre",
        "d"
      ],
      [
        "b",
        "r"
      ],
      [
        "Ġs",
        "ent"
      ],
      [
        "Ġan",
        "s"
      ],
      [
        ")",
        "."
      ],
      [
        "d",
        "er"
      ],
      [
        "ĠI",
        "nd"
      ],
      [
        "Ġa",
        "ir"
      ],
      [
        "d",
        "on"
      ],
      [
        "Ġha",
        "lf"
      ],
      [
        "Ġbe",
        "aut"
      ],
      [
        "Ġs",
        "ince"
      ],
      [
        "Ġto",
        "wn"
      ],
      [
        "Ġbelie",
        "ve"
      ],
      [
        "l",
        "a"
      ],
      [
        "in",
        "es"
      ],
      [
        "os",
        "ed"
      ],
      [
        "Ġw",
        "ind"
      ],
      [
        "ver",
        "n"
      ],
      [
        "as",
        "ter"
      ],
      [
        "L",
        "et"
      ],
      [
        "ĠN",
        "o"
      ],
      [
        "Ġgirl",
        "s"
      ],
      [
        "b",
        "all"
      ],
      [
        "He",
        "y"
      ],
      [
        "Ġp",
        "ict"
      ],
      [
        "ĠI",
        "s"
      ],
      [
        "o",
        "or"
      ],
      [
        "pp",
        "ed"
      ],
      [
        "Ġ",
        "âĢĵ"
      ],
      [
        "Ġgo",
        "es"
      ],
      [
        "Ġme",
        "et"
      ],
      [
        "Ġin",
        "st"
      ],
      [
        "Ġf",
        "ire"
      ],
      [
        "C",
        "ome"
      ],
      [
        "Ġsha",
        "ll"
      ],
      [
        "S",
        "t"
      ],
      [
        "Ġwr",
        "ite"
      ],
      [
        "Ġr",
        "ound"
      ],
      [
        "d",
        "en"
      ],
      [
        "as",
        "h"
      ],
      [
        "ĠCh",
        "rist"
      ],
      [
        "Ġvo",
        "ice"
      ],
      [
        "N",
        "ot"
      ],
      [
        "in",
        "ess"
      ],
      [
        "ar",
        "ah"
      ],
      [
        "Ġstart",
        "ed"
      ],
      [
        "i",
        "ke"
      ],
      [
        "Ġli",
        "ve"
      ],
      [
        "w",
        "o"
      ],
      [
        "Ġm",
        "ove"
      ],
      [
        "L",
        "O"
      ],
      [
        "Ġ",
        "ri"
      ],
      [
        "ĠA",
        "s"
      ],
      [
        "p",
        "art"
      ],
      [
        "Ġg",
        "one"
      ],
      [
        "Ġqu",
        "est"
      ],
      [
        "Ġin",
        "d"
      ],
      [
        "se",
        "l"
      ],
      [
        "ĠE",
        "d"
      ],
      [
        "Ġsp",
        "o"
      ],
      [
        "en",
        "g"
      ],
      [
        "Ġwor",
        "d"
      ],
      [
        "Ġp",
        "op"
      ],
      [
        "ce",
        "pt"
      ],
      [
        "ĠB",
        "e"
      ],
      [
        "Ġc",
        "at"
      ],
      [
        "Ġt",
        "ri"
      ],
      [
        "ut",
        "h"
      ],
      [
        "or",
        "row"
      ],
      [
        "d",
        "am"
      ],
      [
        "Ġal",
        "ready"
      ],
      [
        "el",
        "t"
      ],
      [
        "Ġbr",
        "other"
      ],
      [
        "Ġl",
        "o"
      ],
      [
        "a",
        "j"
      ],
      [
        "Ġth",
        "ir"
      ],
      [
        "ĠR",
        "e"
      ],
      [
        "B",
        "e"
      ],
      [
        "Ġan",
        "im"
      ],
      [
        "it",
        "her"
      ],
      [
        "Ġh",
        "our"
      ],
      [
        "oun",
        "c"
      ],
      [
        "Ġbr",
        "ing"
      ],
      [
        "Ġsay",
        "ing"
      ],
      [
        "Ġdo",
        "ll"
      ],
      [
        "ull",
        "y"
      ],
      [
        "u",
        "al"
      ],
      [
        "Ġpl",
        "an"
      ],
      [
        "Ġc",
        "a"
      ],
      [
        "Ġ",
        "id"
      ],
      [
        "Ġs",
        "y"
      ],
      [
        "Ġd",
        "ire"
      ],
      [
        "ĠJ",
        "ohn"
      ],
      [
        "is",
        "ed"
      ],
      [
        "ĠT",
        "here"
      ],
      [
        "ct",
        "ed"
      ],
      [
        "Ġs",
        "on"
      ],
      [
        "Ġ19",
        "8"
      ],
      [
        "Ġt",
        "rain"
      ],
      [
        "Ġf",
        "if"
      ],
      [
        "er",
        "y"
      ],
      [
        "ot",
        "e"
      ],
      [
        "f",
        "ter"
      ],
      [
        "l",
        "ish"
      ],
      [
        "Ġhung",
        "ry"
      ],
      [
        "ĠG",
        "od"
      ],
      [
        "Ġc",
        "ap"
      ],
      [
        "Ġwr",
        "ong"
      ],
      [
        "a",
        "id"
      ],
      [
        "Ġm",
        "aking"
      ],
      [
        "Ġh",
        "or"
      ],
      [
        "ak",
        "en"
      ],
      [
        "Ġcount",
        "ry"
      ],
      [
        "M",
        "ommy"
      ],
      [
        "ust",
        "r"
      ],
      [
        "if",
        "ul"
      ],
      [
        "er",
        "n"
      ],
      [
        "Ġre",
        "ady"
      ],
      [
        "Ġdr",
        "ink"
      ],
      [
        "O",
        "n"
      ],
      [
        "CO",
        "L"
      ],
      [
        "i",
        "vers"
      ],
      [
        "a",
        "pp"
      ],
      [
        "Ġ",
        "âĢľ"
      ],
      [
        "w",
        "er"
      ],
      [
        "cl",
        "ud"
      ],
      [
        "Ġbu",
        "ild"
      ],
      [
        "Ġunder",
        "stand"
      ],
      [
        "ĠP",
        "r"
      ],
      [
        "Ġpie",
        "ce"
      ],
      [
        "ward",
        "s"
      ],
      [
        "is",
        "on"
      ],
      [
        "Ġd",
        "at"
      ],
      [
        "U",
        "N"
      ],
      [
        "Ġal",
        "ong"
      ],
      [
        "Ġer",
        "m"
      ],
      [
        "Ġde",
        "ar"
      ],
      [
        "Ġtry",
        "ing"
      ],
      [
        "Ġbre",
        "ak"
      ],
      [
        "Ġfriend",
        "s"
      ],
      [
        "Ġw",
        "onder"
      ],
      [
        "Ġf",
        "ight"
      ],
      [
        "Ġc",
        "ent"
      ],
      [
        "Ġl",
        "ar"
      ],
      [
        "Ġmean",
        "s"
      ],
      [
        "W",
        "hen"
      ],
      [
        "u",
        "es"
      ],
      [
        "a",
        "x"
      ],
      [
        "Ġs",
        "ound"
      ],
      [
        "ĠM",
        "ommy"
      ],
      [
        "o",
        "ber"
      ],
      [
        "e",
        "red"
      ],
      [
        "Ġal",
        "most"
      ],
      [
        "Ġim",
        "p"
      ],
      [
        "Ġbec",
        "ame"
      ],
      [
        "Ġret",
        "urn"
      ],
      [
        "Ġsu",
        "b"
      ],
      [
        "ac",
        "es"
      ],
      [
        "ĠR",
        "oss"
      ],
      [
        "et",
        "h"
      ],
      [
        "Ġc",
        "ut"
      ],
      [
        "Ġl",
        "and"
      ],
      [
        "Ġf",
        "oot"
      ],
      [
        "Ġh",
        "ot"
      ],
      [
        "Ã",
        "©"
      ],
      [
        "it",
        "ies"
      ],
      [
        "1",
        "9"
      ],
      [
        "Ġb",
        "as"
      ],
      [
        "\"",
        ","
      ],
      [
        "a",
        "ul"
      ],
      [
        "ĠS",
        "c"
      ],
      [
        "ĠG",
        "er"
      ],
      [
        "Ġs",
        "ort"
      ],
      [
        "p",
        "ed"
      ],
      [
        "Ġe",
        "as"
      ],
      [
        "Ġm",
        "iss"
      ],
      [
        "om",
        "m"
      ],
      [
        "J",
        "ust"
      ],
      [
        "Ġa",
        "ge"
      ],
      [
        "Ġl",
        "augh"
      ],
      [
        "Ġg",
        "ame"
      ],
      [
        "ur",
        "y"
      ],
      [
        "Ġbeg",
        "an"
      ],
      [
        "ie",
        "ld"
      ],
      [
        "at",
        "ive"
      ],
      [
        "Ġwom",
        "an"
      ],
      [
        "b",
        "y"
      ],
      [
        "Ġwould",
        "n"
      ],
      [
        "al",
        "right"
      ],
      [
        "Ġ",
        "7"
      ],
      [
        "c",
        "ess"
      ],
      [
        "Ġt",
        "ra"
      ],
      [
        "Ġw",
        "he"
      ],
      [
        "Ġp",
        "aper"
      ],
      [
        "Ġmom",
        "ent"
      ],
      [
        "Ġ",
        "6"
      ],
      [
        "ain",
        "t"
      ],
      [
        "is",
        "it"
      ],
      [
        "un",
        "t"
      ],
      [
        "e",
        "b"
      ],
      [
        "ow",
        "s"
      ],
      [
        "Ġj",
        "o"
      ],
      [
        "Ġle",
        "ad"
      ],
      [
        "âĢ",
        "ĺ"
      ],
      [
        "E",
        "N"
      ],
      [
        "r",
        "ic"
      ],
      [
        "Ġ",
        "8"
      ],
      [
        "Ġgu",
        "y"
      ],
      [
        "us",
        "h"
      ],
      [
        "ĠS",
        "p"
      ],
      [
        "in",
        "ed"
      ],
      [
        "Ġin",
        "te"
      ],
      [
        "or",
        "m"
      ],
      [
        ".",
        "âĢĿ"
      ],
      [
        "on",
        "y"
      ],
      [
        "d",
        "u"
      ],
      [
        "Ġt",
        "re"
      ],
      [
        "ay",
        "be"
      ],
      [
        "Ġtw",
        "enty"
      ],
      [
        "Ġad",
        "d"
      ],
      [
        "Ġid",
        "ea"
      ],
      [
        "Ġde",
        "ath"
      ],
      [
        "it",
        "al"
      ],
      [
        "Ġre",
        "f"
      ],
      [
        "ant",
        "s"
      ],
      [
        "Ġsp",
        "eak"
      ],
      [
        "k",
        "en"
      ],
      [
        "Ġre",
        "p"
      ],
      [
        "L",
        "ook"
      ],
      [
        "Ġf",
        "ore"
      ],
      [
        "Ġgu",
        "ys"
      ],
      [
        "Ġact",
        "ually"
      ],
      [
        "ĠT",
        "HE"
      ],
      [
        "Ġ19",
        "7"
      ],
      [
        "ro",
        "p"
      ],
      [
        "uh",
        "huh"
      ],
      [
        "Ġgu",
        "ess"
      ],
      [
        "Ġpro",
        "ble"
      ],
      [
        "ro",
        "g"
      ],
      [
        "b",
        "ably"
      ],
      [
        "r",
        "s"
      ],
      [
        "Ã",
        "Ń"
      ],
      [
        "Ġin",
        "t"
      ],
      [
        "Ġp",
        "rom"
      ],
      [
        "Ġwh",
        "ite"
      ],
      [
        "Ġpart",
        "y"
      ],
      [
        "Ġas",
        "s"
      ],
      [
        "Ġl",
        "ost"
      ],
      [
        "Ġst",
        "uff"
      ],
      [
        "Ġt",
        "en"
      ],
      [
        "en",
        "e"
      ],
      [
        "Ġh",
        "um"
      ],
      [
        "Ġturn",
        "ed"
      ],
      [
        "Ġs",
        "ign"
      ],
      [
        "Ġp",
        "oss"
      ],
      [
        "Ġbeaut",
        "iful"
      ],
      [
        "Ġph",
        "one"
      ],
      [
        "re",
        "et"
      ],
      [
        "Ġpres",
        "ent"
      ],
      [
        "A",
        "I"
      ],
      [
        "ag",
        "es"
      ],
      [
        "Ġrec",
        "ord"
      ],
      [
        "T",
        "hen"
      ],
      [
        "Ġte",
        "le"
      ],
      [
        "Ġf",
        "ine"
      ],
      [
        "Ġy",
        "ellow"
      ],
      [
        "r",
        "ing"
      ],
      [
        "ep",
        "t"
      ],
      [
        "Ġlook",
        "s"
      ],
      [
        "Ġbr",
        "ought"
      ],
      [
        "Ġc",
        "ertain"
      ],
      [
        "Ġp",
        "ubl"
      ],
      [
        "ĠM",
        "ot"
      ],
      [
        "Ġwor",
        "ds"
      ],
      [
        "Ġd",
        "uring"
      ],
      [
        "oll",
        "y"
      ],
      [
        "O",
        "N"
      ],
      [
        "Ġt",
        "imes"
      ],
      [
        "ĠC",
        "ount"
      ],
      [
        "Ġinte",
        "rest"
      ],
      [
        "et",
        "er"
      ],
      [
        "Ġcon",
        "f"
      ],
      [
        "Ġc",
        "oll"
      ],
      [
        "k",
        "es"
      ],
      [
        "Ġf",
        "act"
      ],
      [
        "Ġl",
        "ear"
      ],
      [
        "st",
        "er"
      ],
      [
        "he",
        "y"
      ],
      [
        "Ġcom",
        "es"
      ],
      [
        "Ġ",
        "9"
      ],
      [
        "Ġa",
        "w"
      ],
      [
        "ou",
        "ble"
      ],
      [
        "Ġpol",
        "it"
      ],
      [
        "ou",
        "ch"
      ],
      [
        "Ġs",
        "un"
      ],
      [
        "ur",
        "s"
      ],
      [
        "un",
        "ch"
      ],
      [
        "ĠĠĠĠĠĠĠĠ",
        "ĠĠĠĠĠĠĠĠ"
      ],
      [
        "Ġmon",
        "th"
      ],
      [
        "ĠEng",
        "lish"
      ],
      [
        "e",
        "y"
      ],
      [
        "Ġplay",
        "ed"
      ],
      [
        "Ġte",
        "am"
      ],
      [
        "Ġm",
        "usic"
      ],
      [
        "Ġex",
        "c"
      ],
      [
        "Ġwee",
        "k"
      ],
      [
        "W",
        "here"
      ],
      [
        "Ġo",
        "h"
      ],
      [
        "ie",
        "f"
      ],
      [
        "N",
        "A"
      ],
      [
        "G",
        "LO"
      ],
      [
        "Ġf",
        "ull"
      ],
      [
        "Ġboy",
        "s"
      ],
      [
        "y",
        "ing"
      ],
      [
        "Ġp",
        "ay"
      ],
      [
        "ist",
        "s"
      ],
      [
        "Ġplay",
        "ing"
      ],
      [
        "A",
        "re"
      ],
      [
        "Ġ",
        "i"
      ],
      [
        "a",
        "red"
      ],
      [
        "Ġw",
        "and"
      ],
      [
        "Ġt",
        "aken"
      ],
      [
        "Ġs",
        "ister"
      ],
      [
        "Ġhapp",
        "y"
      ],
      [
        ",",
        "âĢĿ"
      ],
      [
        "Ġj",
        "ob"
      ],
      [
        "âĢ",
        "Ķ"
      ],
      [
        "T",
        "hank"
      ],
      [
        "leas",
        "ed"
      ],
      [
        "am",
        "a"
      ],
      [
        "Ġde",
        "l"
      ],
      [
        "Ġcl",
        "ose"
      ],
      [
        "Ġbe",
        "ar"
      ],
      [
        "Ġab",
        "le"
      ],
      [
        "W",
        "ho"
      ],
      [
        "ĠF",
        "or"
      ],
      [
        "D",
        "id"
      ],
      [
        "Ġmat",
        "ter"
      ],
      [
        "e",
        "ad"
      ],
      [
        "Ġmo",
        "vie"
      ],
      [
        "h",
        "il"
      ],
      [
        "es",
        "e"
      ],
      [
        "air",
        "s"
      ],
      [
        "ĠA",
        "t"
      ],
      [
        "re",
        "ad"
      ],
      [
        "Ġro",
        "ck"
      ],
      [
        "Ġh",
        "ope"
      ],
      [
        "f",
        "ully"
      ],
      [
        "Ġin",
        "clud"
      ],
      [
        "T",
        "h"
      ],
      [
        "ke",
        "y"
      ],
      [
        "Ġbo",
        "x"
      ],
      [
        "ĠF",
        "l"
      ],
      [
        "n",
        "ed"
      ],
      [
        "z",
        "e"
      ],
      [
        "M",
        "EL"
      ],
      [
        "Ġlist",
        "en"
      ],
      [
        "Ġwr",
        "it"
      ],
      [
        "am",
        "ed"
      ],
      [
        "--",
        "--"
      ],
      [
        "g",
        "ot"
      ],
      [
        "Ġf",
        "ell"
      ],
      [
        "at",
        "s"
      ],
      [
        "Ġex",
        "t"
      ],
      [
        "Ġmin",
        "ute"
      ],
      [
        "Ġk",
        "ing"
      ],
      [
        "g",
        "an"
      ],
      [
        "m",
        "ore"
      ],
      [
        "Ġthan",
        "k"
      ],
      [
        "Ġdis",
        "c"
      ],
      [
        "ro",
        "om"
      ],
      [
        "Ġin",
        "c"
      ],
      [
        "t",
        "ain"
      ],
      [
        "ic",
        "ha"
      ],
      [
        "m",
        "ing"
      ],
      [
        "Ġm",
        "ed"
      ],
      [
        "Ġd",
        "ress"
      ],
      [
        "Ġmagn",
        "et"
      ],
      [
        "Ġf",
        "elt"
      ],
      [
        "Ġher",
        "self"
      ],
      [
        "ĠG",
        "r"
      ],
      [
        "Ġpo",
        "or"
      ],
      [
        "p",
        "le"
      ],
      [
        "u",
        "ary"
      ],
      [
        "Ġc",
        "ir"
      ],
      [
        "Ġl",
        "aw"
      ],
      [
        "Ġde",
        "ad"
      ],
      [
        "h",
        "ind"
      ],
      [
        "Ġar",
        "t"
      ],
      [
        "m",
        "en"
      ],
      [
        "Ġ",
        "Q"
      ],
      [
        "Ġe",
        "gg"
      ],
      [
        "um",
        "b"
      ],
      [
        "Ġmy",
        "self"
      ],
      [
        "ol",
        "og"
      ],
      [
        "Ġwant",
        "s"
      ],
      [
        "Ġs",
        "at"
      ],
      [
        "id",
        "ed"
      ],
      [
        "Ġseem",
        "ed"
      ],
      [
        "ut",
        "es"
      ],
      [
        "o",
        "le"
      ],
      [
        "j",
        "ust"
      ],
      [
        "is",
        "es"
      ],
      [
        "id",
        "d"
      ],
      [
        "Ġlet",
        "ter"
      ],
      [
        "ĠC",
        "l"
      ],
      [
        "us",
        "ed"
      ],
      [
        "C",
        "an"
      ],
      [
        "Ġs",
        "im"
      ],
      [
        "li",
        "ke"
      ],
      [
        "Ġcont",
        "in"
      ],
      [
        "Ġ19",
        "6"
      ],
      [
        "n",
        "er"
      ],
      [
        "Ġl",
        "ate"
      ],
      [
        "Ġin",
        "ter"
      ],
      [
        "Ġag",
        "o"
      ],
      [
        "ren",
        "ch"
      ],
      [
        "Ġsp",
        "e"
      ],
      [
        "Ġp",
        "ounds"
      ],
      [
        "ept",
        "ember"
      ],
      [
        "Ġcould",
        "n"
      ],
      [
        "Ġb",
        "ar"
      ],
      [
        "Ġm",
        "akes"
      ],
      [
        "s",
        "on"
      ],
      [
        "Ġmay",
        "be"
      ],
      [
        "b",
        "um"
      ],
      [
        "ry",
        "ing"
      ],
      [
        "ĠA",
        "p"
      ],
      [
        "Ġbl",
        "ue"
      ],
      [
        "Ġsome",
        "one"
      ],
      [
        "Ġg",
        "ener"
      ],
      [
        "Ġoff",
        "ic"
      ],
      [
        "sel",
        "ves"
      ],
      [
        "Ġgot",
        "ta"
      ],
      [
        "ĠT",
        "hat"
      ],
      [
        "Ġ1",
        "0"
      ],
      [
        "ou",
        "b"
      ],
      [
        "Ġle",
        "g"
      ],
      [
        "ha",
        "ps"
      ],
      [
        "if",
        "ic"
      ],
      [
        "Ġ",
        ","
      ],
      [
        "Ġha",
        "ir"
      ],
      [
        "b",
        "b"
      ],
      [
        "Ġs",
        "ir"
      ],
      [
        "it",
        "c"
      ],
      [
        "Ġli",
        "ved"
      ],
      [
        "Ġr",
        "ather"
      ],
      [
        "ous",
        "and"
      ],
      [
        "at",
        "or"
      ],
      [
        "Ġl",
        "oc"
      ],
      [
        "ut",
        "ion"
      ],
      [
        "ĠA",
        "ll"
      ],
      [
        "inn",
        "er"
      ],
      [
        "R",
        "ight"
      ],
      [
        "Ġp",
        "ri"
      ],
      [
        "id",
        "es"
      ],
      [
        "ĠC",
        "ar"
      ],
      [
        "s",
        "p"
      ],
      [
        "he",
        "ad"
      ],
      [
        "Ġfr",
        "ont"
      ],
      [
        "g",
        "in"
      ],
      [
        "b",
        "orn"
      ],
      [
        "Ġgo",
        "vern"
      ],
      [
        "Ġbus",
        "iness"
      ],
      [
        "Ġfl",
        "oor"
      ],
      [
        "ian",
        "s"
      ],
      [
        "Ġstr",
        "ong"
      ],
      [
        "b",
        "o"
      ],
      [
        "Ġst",
        "ate"
      ],
      [
        "E",
        "r"
      ],
      [
        "itt",
        "ing"
      ],
      [
        "ĠH",
        "er"
      ],
      [
        "O",
        "R"
      ],
      [
        "Ġbe",
        "hind"
      ],
      [
        "Ġquest",
        "ion"
      ],
      [
        "Ġc",
        "up"
      ],
      [
        "Ġim",
        "port"
      ],
      [
        "Ġl",
        "ess"
      ],
      [
        "ĠT",
        "hen"
      ],
      [
        "ment",
        "s"
      ],
      [
        "Ġwom",
        "en"
      ],
      [
        "o",
        "es"
      ],
      [
        "Ġe",
        "v"
      ],
      [
        "Ġst",
        "e"
      ],
      [
        "Ġmin",
        "utes"
      ],
      [
        "ĠS",
        "eptember"
      ],
      [
        "ivers",
        "ity"
      ],
      [
        "ĠGer",
        "man"
      ],
      [
        "at",
        "i"
      ],
      [
        "Ġsh",
        "ort"
      ],
      [
        "iz",
        "e"
      ],
      [
        "u",
        "red"
      ],
      [
        "ĠCount",
        "y"
      ],
      [
        "al",
        "d"
      ],
      [
        "ĠFran",
        "ce"
      ],
      [
        "Ġs",
        "we"
      ],
      [
        "ĠH",
        "is"
      ],
      [
        "iz",
        "ed"
      ],
      [
        "s",
        "ing"
      ],
      [
        "Ġth",
        "ousand"
      ],
      [
        "Ġg",
        "reen"
      ],
      [
        "Ġde",
        "al"
      ],
      [
        "Ġ",
        "ed"
      ],
      [
        "ĠB",
        "l"
      ],
      [
        "Ġpro",
        "bably"
      ],
      [
        "i",
        "k"
      ],
      [
        "fe",
        "ct"
      ],
      [
        "u",
        "ro"
      ],
      [
        "ĠJan",
        "uary"
      ],
      [
        "Ġcha",
        "ir"
      ],
      [
        "f",
        "ord"
      ],
      [
        "en",
        "se"
      ],
      [
        "Ġse",
        "ven"
      ],
      [
        "e",
        "en"
      ],
      [
        "Ġw",
        "ood"
      ],
      [
        "Ġcle",
        "ar"
      ],
      [
        "p",
        "ill"
      ],
      [
        "Ġal",
        "one"
      ],
      [
        "ri",
        "l"
      ],
      [
        "Ġc",
        "ase"
      ],
      [
        "Ġout",
        "side"
      ],
      [
        "ĠC",
        "an"
      ],
      [
        "at",
        "ur"
      ],
      [
        "on",
        "es"
      ],
      [
        "Ġha",
        "ven"
      ],
      [
        "Ġbir",
        "th"
      ],
      [
        "ent",
        "ion"
      ],
      [
        "Ġ202",
        "2"
      ],
      [
        "Ġ19",
        "4"
      ],
      [
        "u",
        "ly"
      ],
      [
        "Ġc",
        "ur"
      ],
      [
        "Ġr",
        "an"
      ],
      [
        "Ġser",
        "v"
      ],
      [
        "A",
        "s"
      ],
      [
        "ha",
        "m"
      ],
      [
        "Ġcol",
        "or"
      ],
      [
        "Ġ",
        "es"
      ],
      [
        "le",
        "y"
      ],
      [
        "Ġtr",
        "ue"
      ],
      [
        "et",
        "y"
      ],
      [
        "Ġt",
        "ape"
      ],
      [
        "G",
        "ood"
      ],
      [
        "Ġqu",
        "ick"
      ],
      [
        "Ġin",
        "side"
      ],
      [
        "is",
        "m"
      ],
      [
        "ĠH",
        "ow"
      ],
      [
        "Ġal",
        "bum"
      ],
      [
        "A",
        "t"
      ],
      [
        "m",
        "orrow"
      ],
      [
        "Ġc",
        "ook"
      ],
      [
        "Ġl",
        "ady"
      ],
      [
        "R",
        "I"
      ],
      [
        "an",
        "e"
      ],
      [
        "Ġm",
        "ine"
      ],
      [
        "ug",
        "ust"
      ],
      [
        "ater",
        "pill"
      ],
      [
        "aught",
        "er"
      ],
      [
        "Ġf",
        "rog"
      ],
      [
        "Ġl",
        "ay"
      ],
      [
        "ĠS",
        "arah"
      ],
      [
        "id",
        "er"
      ],
      [
        "Ġc",
        "reat"
      ],
      [
        "el",
        "s"
      ],
      [
        "Ġmil",
        "k"
      ],
      [
        "y",
        "ep"
      ],
      [
        "CHI",
        "LD"
      ],
      [
        "ĠBr",
        "it"
      ],
      [
        "ri",
        "an"
      ],
      [
        "Ġp",
        "ower"
      ],
      [
        "ĠO",
        "n"
      ],
      [
        "Ġp",
        "ar"
      ],
      [
        "ear",
        "s"
      ],
      [
        "A",
        "L"
      ],
      [
        "Ġs",
        "qu"
      ],
      [
        "er",
        "v"
      ],
      [
        "Ġ19",
        "5"
      ],
      [
        "Ġro",
        "ad"
      ],
      [
        "Ġyour",
        "self"
      ],
      [
        "Ġex",
        "pl"
      ],
      [
        "g",
        "y"
      ],
      [
        "Ġh",
        "on"
      ],
      [
        "are",
        "nt"
      ],
      [
        "or",
        "ld"
      ],
      [
        "ran",
        "ge"
      ],
      [
        "Ġchan",
        "ge"
      ],
      [
        "ot",
        "h"
      ],
      [
        "Ġpict",
        "ure"
      ],
      [
        "be",
        "cause"
      ],
      [
        "er",
        "c"
      ],
      [
        "ra",
        "p"
      ],
      [
        "Ġw",
        "in"
      ],
      [
        "A",
        "l"
      ],
      [
        "Ġp",
        "ull"
      ],
      [
        "r",
        "it"
      ],
      [
        "2",
        "0"
      ],
      [
        "c",
        "hes"
      ],
      [
        "Ġgi",
        "ven"
      ],
      [
        "Ġof",
        "ten"
      ],
      [
        "ĠM",
        "ay"
      ],
      [
        "w",
        "hen"
      ],
      [
        "Ġd",
        "ark"
      ],
      [
        "Ġgr",
        "and"
      ],
      [
        "ĠMar",
        "ch"
      ],
      [
        "l",
        "o"
      ],
      [
        "Ġt",
        "aking"
      ],
      [
        "Ġm",
        "ark"
      ],
      [
        "Ġw",
        "ish"
      ],
      [
        "Ġd",
        "ream"
      ],
      [
        "Ġon",
        "es"
      ],
      [
        "for",
        "m"
      ],
      [
        "Ġfif",
        "ty"
      ],
      [
        "Ġare",
        "a"
      ],
      [
        "ĠY",
        "ork"
      ],
      [
        "il",
        "t"
      ],
      [
        "Ġpr",
        "ot"
      ],
      [
        "ang",
        "u"
      ],
      [
        "G",
        "AI"
      ],
      [
        "c",
        "he"
      ],
      [
        "ĠO",
        "h"
      ],
      [
        "ĠP",
        "ar"
      ],
      [
        "k",
        "ed"
      ],
      [
        "Ġpro",
        "f"
      ],
      [
        "Ġhur",
        "t"
      ],
      [
        "Ġw",
        "ife"
      ],
      [
        "Ġchild",
        "es"
      ],
      [
        "CHILD",
        "ES"
      ],
      [
        "ĠW",
        "ill"
      ],
      [
        "Ġs",
        "al"
      ],
      [
        "ious",
        "ly"
      ],
      [
        "m",
        "a"
      ],
      [
        "ot",
        "t"
      ],
      [
        "Ġhis",
        "t"
      ],
      [
        "Ġfe",
        "et"
      ],
      [
        "aterpill",
        "ar"
      ],
      [
        "Ġb",
        "ody"
      ],
      [
        "Ġtr",
        "ans"
      ],
      [
        "g",
        "ood"
      ],
      [
        "en",
        "n"
      ],
      [
        "Ġfun",
        "ny"
      ],
      [
        "G",
        "R"
      ],
      [
        "b",
        "s"
      ],
      [
        "p",
        "oint"
      ],
      [
        "i",
        "pp"
      ],
      [
        "ct",
        "ober"
      ],
      [
        "F",
        "or"
      ],
      [
        "M",
        "om"
      ],
      [
        "Ġe",
        "m"
      ],
      [
        "G",
        "o"
      ],
      [
        "re",
        "y"
      ],
      [
        "c",
        "ent"
      ],
      [
        "Ġf",
        "av"
      ],
      [
        "ic",
        "es"
      ],
      [
        "a",
        "ur"
      ],
      [
        "Ġwork",
        "ing"
      ],
      [
        "f",
        "ort"
      ],
      [
        "e",
        "or"
      ],
      [
        "ĠA",
        "ugust"
      ],
      [
        "i",
        "am"
      ],
      [
        "Ġli",
        "ving"
      ],
      [
        "ic",
        "ip"
      ],
      [
        "Ġm",
        "ill"
      ],
      [
        "Ġle",
        "ast"
      ],
      [
        "Ġn",
        "amed"
      ],
      [
        "Ġfor",
        "m"
      ],
      [
        "Ġt",
        "ried"
      ],
      [
        "ĠP",
        "hil"
      ],
      [
        "re",
        "m"
      ],
      [
        "ĠF",
        "rench"
      ],
      [
        "ren",
        "ce"
      ],
      [
        "Ġco",
        "ld"
      ],
      [
        "f",
        "l"
      ],
      [
        "Ġlar",
        "ge"
      ],
      [
        "l",
        "s"
      ],
      [
        "ĠA",
        "dam"
      ],
      [
        "ain",
        "ed"
      ],
      [
        "ĠF",
        "r"
      ],
      [
        "ar",
        "a"
      ],
      [
        "um",
        "mer"
      ],
      [
        "Ġre",
        "ason"
      ],
      [
        "ard",
        "s"
      ],
      [
        "Ġc",
        "ho"
      ],
      [
        "w",
        "w"
      ],
      [
        "Ġf",
        "ig"
      ],
      [
        "Ġans",
        "wer"
      ],
      [
        "Ġf",
        "air"
      ],
      [
        "Ġbu",
        "y"
      ],
      [
        "in",
        "ing"
      ],
      [
        "ĠW",
        "orld"
      ],
      [
        "ate",
        "ly"
      ],
      [
        "s",
        "c"
      ],
      [
        "v",
        "ision"
      ],
      [
        "Ġex",
        "pect"
      ],
      [
        "R",
        "E"
      ],
      [
        "Ġbut",
        "ter"
      ],
      [
        "Ġother",
        "s"
      ],
      [
        "m",
        "as"
      ],
      [
        "Ġo",
        "cc"
      ],
      [
        "Ġs",
        "ea"
      ],
      [
        "ĠW",
        "hen"
      ],
      [
        "ent",
        "ly"
      ],
      [
        "Ġp",
        "ast"
      ],
      [
        "Ġ",
        "-"
      ],
      [
        "Ġgr",
        "ow"
      ],
      [
        "Ġl",
        "ine"
      ],
      [
        "al",
        "th"
      ],
      [
        "r",
        "ict"
      ],
      [
        "Ġcl",
        "ass"
      ],
      [
        "Ġp",
        "u"
      ],
      [
        "ion",
        "al"
      ],
      [
        "Ġd",
        "raw"
      ],
      [
        "Ġl",
        "angu"
      ],
      [
        "ho",
        "ld"
      ],
      [
        "â",
        "Ļ"
      ],
      [
        "Ġe",
        "ither"
      ],
      [
        "Ġimport",
        "ant"
      ],
      [
        "Ġb",
        "at"
      ],
      [
        "am",
        "ent"
      ],
      [
        "c",
        "om"
      ],
      [
        "Ġme",
        "mber"
      ],
      [
        "av",
        "id"
      ],
      [
        "ĠAp",
        "ril"
      ],
      [
        "a",
        "im"
      ],
      [
        "itt",
        "en"
      ],
      [
        "ĠO",
        "ctober"
      ],
      [
        "l",
        "er"
      ],
      [
        "Ġli",
        "ves"
      ],
      [
        "âĻ",
        "ª"
      ],
      [
        "Ġad",
        "v"
      ],
      [
        "Ġt",
        "ill"
      ],
      [
        "Ġt",
        "ree"
      ],
      [
        "Ġre",
        "port"
      ],
      [
        "ul",
        "a"
      ],
      [
        "ĠP",
        "ro"
      ],
      [
        "Ġhor",
        "se"
      ],
      [
        "ri",
        "e"
      ],
      [
        "at",
        "ure"
      ],
      [
        "Ġatt",
        "ack"
      ],
      [
        "00",
        "0"
      ],
      [
        "Ġwe",
        "ar"
      ],
      [
        "Ġkid",
        "s"
      ],
      [
        "ar",
        "ch"
      ],
      [
        "Ġre",
        "ce"
      ],
      [
        "Ġm",
        "ess"
      ],
      [
        "ra",
        "id"
      ],
      [
        "ï¿½ï¿½",
        "ï¿½ï¿½"
      ],
      [
        "Ġbl",
        "ock"
      ],
      [
        "Ġse",
        "nd"
      ],
      [
        "Ġ1",
        "7"
      ],
      [
        "Ġg",
        "ra"
      ],
      [
        "ĠL",
        "e"
      ],
      [
        "a",
        "i"
      ],
      [
        "Ġkill",
        "ed"
      ],
      [
        "Ġso",
        "ld"
      ],
      [
        "Ġbec",
        "ome"
      ],
      [
        "Ġf",
        "ree"
      ],
      [
        "Ġcon",
        "st"
      ],
      [
        "g",
        "ue"
      ],
      [
        "al",
        "ity"
      ],
      [
        "Ġc",
        "amp"
      ],
      [
        "ĠS",
        "w"
      ],
      [
        "Ġor",
        "der"
      ],
      [
        "m",
        "other"
      ],
      [
        "Ġm",
        "ain"
      ],
      [
        "o",
        "e"
      ],
      [
        "os",
        "p"
      ],
      [
        "Ġex",
        "p"
      ],
      [
        "ĠB",
        "ro"
      ],
      [
        "Ġqu",
        "iet"
      ],
      [
        "Ġt",
        "ea"
      ],
      [
        "Ġam",
        "ong"
      ],
      [
        "Ġc",
        "ried"
      ],
      [
        "em",
        "ent"
      ],
      [
        "y",
        "up"
      ],
      [
        "Ġp",
        "ur"
      ],
      [
        "Ġcomp",
        "any"
      ],
      [
        "Ġgl",
        "ad"
      ],
      [
        "Ġear",
        "ly"
      ],
      [
        "Ġmo",
        "on"
      ],
      [
        "Ġac",
        "ross"
      ],
      [
        "Y",
        "our"
      ],
      [
        "Ġhe",
        "ld"
      ],
      [
        "n",
        "ina"
      ],
      [
        "Ġd",
        "ro"
      ],
      [
        "Ġ201",
        "7"
      ],
      [
        "Ġj",
        "ump"
      ],
      [
        "ffe",
        "e"
      ],
      [
        "ick",
        "s"
      ],
      [
        "Ġwork",
        "ed"
      ],
      [
        "Ġob",
        "ject"
      ],
      [
        "d",
        "uc"
      ],
      [
        "ĠE",
        "uro"
      ],
      [
        "ĠH",
        "ar"
      ],
      [
        "ac",
        "hed"
      ],
      [
        "g",
        "es"
      ],
      [
        "ic",
        "a"
      ],
      [
        "C",
        "H"
      ],
      [
        "en",
        "ed"
      ],
      [
        "Ġst",
        "ar"
      ],
      [
        "Ġto",
        "ys"
      ],
      [
        "itt",
        "y"
      ],
      [
        "R",
        "e"
      ],
      [
        "Ġv",
        "isit"
      ],
      [
        "b",
        "l"
      ],
      [
        "Ġw",
        "all"
      ],
      [
        "Ġre",
        "leased"
      ],
      [
        "ĠW",
        "ar"
      ],
      [
        "idd",
        "le"
      ],
      [
        "Ġs",
        "n"
      ],
      [
        "Ġthink",
        "ing"
      ],
      [
        "P",
        "lease"
      ],
      [
        "Ġ1",
        "5"
      ],
      [
        "ĠR",
        "uss"
      ],
      [
        "A",
        "S"
      ],
      [
        "ĠUn",
        "iversity"
      ],
      [
        "Ġf",
        "ast"
      ],
      [
        "Ġanim",
        "als"
      ],
      [
        "ac",
        "ed"
      ],
      [
        "Ġget",
        "s"
      ],
      [
        "H",
        "S"
      ],
      [
        "Ġte",
        "ac"
      ],
      [
        "laugh",
        "ing"
      ],
      [
        "Ġ",
        "ill"
      ],
      [
        "Ġc",
        "or"
      ],
      [
        "i",
        "ved"
      ],
      [
        "Ġ19",
        "3"
      ],
      [
        "T",
        "o"
      ],
      [
        "Ġno",
        "ise"
      ],
      [
        "d",
        "y"
      ],
      [
        "ur",
        "ch"
      ],
      [
        "Ġb",
        "and"
      ],
      [
        "ill",
        "y"
      ],
      [
        "O",
        "ne"
      ],
      [
        "t",
        "wo"
      ],
      [
        "ĠR",
        "ep"
      ],
      [
        "Ġo",
        "pp"
      ],
      [
        "Ġso",
        "ft"
      ],
      [
        "m",
        "usic"
      ],
      [
        "Ġn",
        "ine"
      ],
      [
        "Ġcle",
        "an"
      ],
      [
        "Ġgr",
        "oup"
      ],
      [
        "Ġsomet",
        "imes"
      ],
      [
        "inn",
        "ing"
      ],
      [
        "Ġproble",
        "m"
      ],
      [
        "d",
        "den"
      ],
      [
        "Ġre",
        "pl"
      ],
      [
        "Ġaf",
        "raid"
      ],
      [
        "M",
        "ark"
      ],
      [
        "Ġde",
        "m"
      ],
      [
        "Ġcomp",
        "et"
      ],
      [
        "Ġf",
        "ing"
      ],
      [
        "Ġche",
        "ck"
      ],
      [
        "Ġmar",
        "ried"
      ],
      [
        "Ġsing",
        "le"
      ],
      [
        "Ġin",
        "s"
      ],
      [
        "st",
        "em"
      ],
      [
        "A",
        "UN"
      ],
      [
        "ĠG",
        "u"
      ],
      [
        "Ġ",
        "z"
      ],
      [
        "ĠC",
        "on"
      ],
      [
        "Ġad",
        "m"
      ],
      [
        "k",
        "ing"
      ],
      [
        "Ġfin",
        "ished"
      ],
      [
        "Ġtr",
        "ouble"
      ],
      [
        "ain",
        "s"
      ],
      [
        "Ġto",
        "morrow"
      ],
      [
        "ent",
        "le"
      ],
      [
        "il",
        "ity"
      ],
      [
        "Ġbook",
        "s"
      ],
      [
        "Ġ1",
        "2"
      ],
      [
        "ow",
        "ed"
      ],
      [
        "Ġ1",
        "6"
      ],
      [
        "ĠJ",
        "e"
      ],
      [
        "ĠIt",
        "al"
      ],
      [
        "om",
        "an"
      ],
      [
        "Ġsu",
        "dden"
      ],
      [
        "ĠI",
        "f"
      ],
      [
        "Ġh",
        "it"
      ],
      [
        "ay",
        "s"
      ],
      [
        "ĠM",
        "an"
      ],
      [
        "ĠP",
        "aul"
      ],
      [
        "Ġf",
        "ly"
      ],
      [
        "ĠT",
        "o"
      ],
      [
        "f",
        "ic"
      ],
      [
        "han",
        "ks"
      ],
      [
        "ci",
        "ent"
      ],
      [
        "er",
        "ing"
      ],
      [
        "Ġbirth",
        "day"
      ],
      [
        "Ġm",
        "is"
      ],
      [
        "Ġse",
        "ver"
      ],
      [
        "ha",
        "r"
      ],
      [
        "ĠEng",
        "land"
      ],
      [
        "i",
        "ver"
      ],
      [
        "Ġt",
        "on"
      ],
      [
        "Ġc",
        "e"
      ],
      [
        "Ġchan",
        "ce"
      ],
      [
        "no",
        "ck"
      ],
      [
        "Ġp",
        "os"
      ],
      [
        "ic",
        "ally"
      ],
      [
        "Ġres",
        "p"
      ],
      [
        "b",
        "and"
      ],
      [
        "Ġv",
        "ill"
      ],
      [
        "Ġke",
        "pt"
      ],
      [
        "'",
        "."
      ],
      [
        "o",
        "x"
      ],
      [
        "an",
        "a"
      ],
      [
        "ic",
        "ian"
      ],
      [
        "Ġfor",
        "get"
      ],
      [
        "Ġf",
        "ix"
      ],
      [
        "ra",
        "z"
      ],
      [
        "Ġgovern",
        "ment"
      ],
      [
        "in",
        "y"
      ],
      [
        "Be",
        "cause"
      ],
      [
        "Ġpubl",
        "ic"
      ],
      [
        "p",
        "han"
      ],
      [
        "Ġthem",
        "selves"
      ],
      [
        "res",
        "ident"
      ],
      [
        "od",
        "e"
      ],
      [
        "M",
        "r"
      ],
      [
        "is",
        "ing"
      ],
      [
        "Ġn",
        "in"
      ],
      [
        "He",
        "re"
      ],
      [
        "Ġswe",
        "et"
      ],
      [
        "M",
        "m"
      ],
      [
        "ĠG",
        "o"
      ],
      [
        "Ġde",
        "part"
      ],
      [
        "Ġeat",
        "ing"
      ],
      [
        "Ġc",
        "orn"
      ],
      [
        "Ġd",
        "aughter"
      ],
      [
        "ĠM",
        "in"
      ],
      [
        "ĠD",
        "on"
      ],
      [
        "n",
        "ight"
      ],
      [
        "ea",
        "red"
      ],
      [
        "Ġen",
        "g"
      ],
      [
        "Ġm",
        "ur"
      ],
      [
        "id",
        "ge"
      ],
      [
        "or",
        "ies"
      ],
      [
        "I",
        "T"
      ],
      [
        "Ġsur",
        "pr"
      ],
      [
        "t",
        "ed"
      ],
      [
        "Ġ",
        "âĢĺ"
      ],
      [
        "E",
        "X"
      ],
      [
        "ang",
        "er"
      ],
      [
        "Ġsever",
        "al"
      ],
      [
        "Ġmonth",
        "s"
      ],
      [
        "Ġgr",
        "ound"
      ],
      [
        "aj",
        "or"
      ],
      [
        "R",
        "oss"
      ],
      [
        "Ġ",
        "ice"
      ],
      [
        "Ġb",
        "ag"
      ],
      [
        "ow",
        "ers"
      ],
      [
        "Ġwith",
        "in"
      ],
      [
        "Ġp",
        "ain"
      ],
      [
        "Ġst",
        "ore"
      ],
      [
        "itc",
        "hen"
      ],
      [
        "Ġd",
        "inner"
      ],
      [
        "Ġe",
        "vent"
      ],
      [
        "Ġpro",
        "v"
      ],
      [
        "ĠT",
        "O"
      ],
      [
        "ell",
        "o"
      ],
      [
        "ĠY",
        "OU"
      ],
      [
        "E",
        "D"
      ],
      [
        "ĠB",
        "ar"
      ],
      [
        "Ġgo",
        "in"
      ],
      [
        "Ġwind",
        "ow"
      ],
      [
        "Ġf",
        "ish"
      ],
      [
        "Ġto",
        "y"
      ],
      [
        "Ġgo",
        "ld"
      ],
      [
        "vel",
        "op"
      ],
      [
        "ĠB",
        "en"
      ],
      [
        "u",
        "ed"
      ],
      [
        "Ġst",
        "ood"
      ],
      [
        "ĠD",
        "addy"
      ],
      [
        "ĠY",
        "eah"
      ],
      [
        "Ġs",
        "ca"
      ],
      [
        "Ġn",
        "ational"
      ],
      [
        "b",
        "ed"
      ],
      [
        "ĠJ",
        "uly"
      ],
      [
        "Ġm",
        "ot"
      ],
      [
        "Ġe",
        "ye"
      ],
      [
        "ir",
        "on"
      ],
      [
        "Ġm",
        "outh"
      ],
      [
        "ĠCha",
        "r"
      ],
      [
        "ove",
        "red"
      ],
      [
        "ĠBrit",
        "ish"
      ],
      [
        ",",
        "--"
      ],
      [
        "Ġknow",
        "s"
      ],
      [
        "Ġco",
        "ffee"
      ],
      [
        "ĠEuro",
        "pe"
      ],
      [
        "o",
        "on"
      ],
      [
        "Ġ",
        "?"
      ],
      [
        "Ġp",
        "ot"
      ],
      [
        "ove",
        "mber"
      ],
      [
        "gr",
        "am"
      ],
      [
        "Ġk",
        "itchen"
      ],
      [
        "Ġf",
        "il"
      ],
      [
        "ĠChrist",
        "mas"
      ],
      [
        "Ġc",
        "aterpillar"
      ],
      [
        "Ġg",
        "un"
      ],
      [
        "Ġfor",
        "got"
      ],
      [
        "c",
        "ol"
      ],
      [
        "Ġ",
        "rain"
      ],
      [
        "do",
        "es"
      ],
      [
        "Ġb",
        "ath"
      ],
      [
        "Ġst",
        "ru"
      ],
      [
        "ĠC",
        "ol"
      ],
      [
        "ĠG",
        "eor"
      ],
      [
        "ru",
        "ary"
      ],
      [
        "eb",
        "ruary"
      ],
      [
        "A",
        "n"
      ],
      [
        "Ġt",
        "em"
      ],
      [
        "Ġt",
        "ouch"
      ],
      [
        "id",
        "ing"
      ],
      [
        "E",
        "T"
      ],
      [
        "]",
        "?"
      ],
      [
        "ce",
        "mber"
      ],
      [
        "ĠC",
        "ity"
      ],
      [
        "te",
        "en"
      ],
      [
        "Ġrun",
        "ning"
      ],
      [
        ".",
        "'"
      ],
      [
        "ud",
        "e"
      ],
      [
        "h",
        "in"
      ],
      [
        "Ġab",
        "ove"
      ],
      [
        "Ġ202",
        "1"
      ],
      [
        "Ġor",
        "gan"
      ],
      [
        "Ġwhe",
        "ther"
      ],
      [
        "Ġcl",
        "ot"
      ],
      [
        "Ġ1",
        "1"
      ],
      [
        "Ġdo",
        "ctor"
      ],
      [
        "c",
        "on"
      ],
      [
        "Ġm",
        "ist"
      ],
      [
        "act",
        "ly"
      ],
      [
        "A",
        "h"
      ],
      [
        "ĠY",
        "es"
      ],
      [
        "Ġser",
        "ies"
      ],
      [
        "Ġeas",
        "y"
      ],
      [
        "n",
        "es"
      ],
      [
        "Ġbl",
        "ood"
      ],
      [
        "ĠM",
        "other"
      ],
      [
        "Ġex",
        "per"
      ],
      [
        "H",
        "V"
      ],
      [
        "Ġl",
        "eng"
      ],
      [
        "ur",
        "g"
      ],
      [
        "cc",
        "ess"
      ],
      [
        "ĠD",
        "r"
      ],
      [
        "Ġar",
        "m"
      ],
      [
        "Ġsome",
        "body"
      ],
      [
        "point",
        "s"
      ],
      [
        "w",
        "ith"
      ],
      [
        "Ġt",
        "reat"
      ],
      [
        "Ġwr",
        "ote"
      ],
      [
        "er",
        "ry"
      ],
      [
        "Ġp",
        "leas"
      ],
      [
        "Ġh",
        "ors"
      ],
      [
        "ir",
        "d"
      ],
      [
        "Ġc",
        "ross"
      ],
      [
        "Ġt",
        "y"
      ],
      [
        "ĠD",
        "avid"
      ],
      [
        "L",
        "LD"
      ],
      [
        "y",
        "l"
      ],
      [
        "HS",
        "LLD"
      ],
      [
        "r",
        "act"
      ],
      [
        "Ġ201",
        "9"
      ],
      [
        "Ġs",
        "itting"
      ],
      [
        "Ġp",
        "age"
      ],
      [
        "E",
        "very"
      ],
      [
        "Ġf",
        "a"
      ],
      [
        "Ġlong",
        "er"
      ],
      [
        "Ġspe",
        "cial"
      ],
      [
        "d",
        "om"
      ],
      [
        "Ġ",
        "est"
      ],
      [
        "w",
        "as"
      ],
      [
        "Ġoff",
        "ice"
      ],
      [
        "Ġh",
        "oney"
      ],
      [
        "ir",
        "t"
      ],
      [
        "ĠC",
        "omm"
      ],
      [
        "qu",
        "e"
      ],
      [
        "t",
        "hank"
      ],
      [
        "Ġg",
        "entle"
      ],
      [
        "Ġh",
        "op"
      ],
      [
        "ess",
        "ie"
      ],
      [
        "pl",
        "ay"
      ],
      [
        "Ġsy",
        "stem"
      ],
      [
        "us",
        "hed"
      ],
      [
        "Ġde",
        "f"
      ],
      [
        "ph",
        "one"
      ],
      [
        "Ġhour",
        "s"
      ],
      [
        "Ġcomp",
        "le"
      ],
      [
        "mp",
        "ions"
      ],
      [
        "Ġin",
        "de"
      ],
      [
        "av",
        "y"
      ],
      [
        "Ġseem",
        "s"
      ],
      [
        "j",
        "oy"
      ],
      [
        "Ġal",
        "right"
      ],
      [
        "Ġtell",
        "ing"
      ],
      [
        "Ġd",
        "oub"
      ],
      [
        "ag",
        "er"
      ],
      [
        "Ġme",
        "ant"
      ],
      [
        "g",
        "ing"
      ],
      [
        "Ġper",
        "haps"
      ],
      [
        "Ġst",
        "reet"
      ],
      [
        "Ġhum",
        "an"
      ],
      [
        "Ġton",
        "ight"
      ],
      [
        "Ġy",
        "a"
      ],
      [
        "Ġcon",
        "c"
      ],
      [
        "Ġprof",
        "ess"
      ],
      [
        "Ġd",
        "ra"
      ],
      [
        "g",
        "ar"
      ],
      [
        "oo",
        "f"
      ],
      [
        "Ġn",
        "or"
      ],
      [
        "Ġtele",
        "vision"
      ],
      [
        "un",
        "ity"
      ],
      [
        "Ġfoot",
        "ball"
      ],
      [
        "i",
        "um"
      ],
      [
        "w",
        "ait"
      ],
      [
        "S",
        "ome"
      ],
      [
        "Ġha",
        "ng"
      ],
      [
        "ĠN",
        "ovember"
      ],
      [
        "ond",
        "on"
      ],
      [
        "Ġa",
        "head"
      ],
      [
        "ĠD",
        "o"
      ],
      [
        "re",
        "ed"
      ],
      [
        "Ġhow",
        "ever"
      ],
      [
        "ot",
        "s"
      ],
      [
        "Ġeven",
        "ing"
      ],
      [
        "s",
        "ome"
      ],
      [
        "ĠM",
        "y"
      ],
      [
        "e",
        "al"
      ],
      [
        "Ġd",
        "i"
      ],
      [
        "Ġro",
        "ll"
      ],
      [
        "b",
        "ye"
      ],
      [
        "ĠA",
        "f"
      ],
      [
        "Ġbo",
        "at"
      ],
      [
        "r",
        "at"
      ],
      [
        "Ġm",
        "od"
      ],
      [
        "Ġthir",
        "d"
      ],
      [
        "ĠF",
        "ebruary"
      ],
      [
        "Ġst",
        "ep"
      ],
      [
        "ĠM",
        "ary"
      ],
      [
        "Ġyour",
        "s"
      ],
      [
        "ĠM",
        "om"
      ],
      [
        "Ġgo",
        "d"
      ],
      [
        "Ġany",
        "more"
      ],
      [
        "Ġ201",
        "6"
      ],
      [
        "ĠP",
        "art"
      ],
      [
        "Ġsl",
        "ow"
      ],
      [
        "un",
        "k"
      ],
      [
        "ĠN",
        "ational"
      ],
      [
        "Ġmill",
        "ion"
      ],
      [
        "Ġst",
        "ra"
      ],
      [
        "us",
        "band"
      ],
      [
        "f",
        "ly"
      ],
      [
        "Ġpart",
        "ic"
      ],
      [
        "Ġpr",
        "ison"
      ],
      [
        "Ġwh",
        "om"
      ],
      [
        "Ġpres",
        "ident"
      ],
      [
        "Ġs",
        "ounds"
      ],
      [
        "T",
        "ER"
      ],
      [
        "il",
        "ver"
      ],
      [
        "Ġr",
        "ing"
      ],
      [
        "Ġmo",
        "ved"
      ],
      [
        "it",
        "ch"
      ],
      [
        "Ġha",
        "r"
      ],
      [
        "Ġ1",
        "4"
      ],
      [
        "Ġnew",
        "s"
      ],
      [
        "Ġper",
        "fect"
      ],
      [
        "Ġan",
        "n"
      ],
      [
        "Ġsupp",
        "ort"
      ],
      [
        "Ġsa",
        "fe"
      ],
      [
        "Ġare",
        "n"
      ],
      [
        "Ġpass",
        "ed"
      ],
      [
        "ĠDe",
        "cember"
      ],
      [
        "Ġd",
        "ad"
      ],
      [
        "U",
        "h"
      ],
      [
        "Ġno",
        "ises"
      ],
      [
        "ĠJ",
        "une"
      ],
      [
        "Ġbir",
        "d"
      ],
      [
        "ĠP",
        "resident"
      ],
      [
        "Ġl",
        "ad"
      ],
      [
        "ast",
        "ic"
      ],
      [
        "Ġ1",
        "3"
      ],
      [
        "Ġthir",
        "ty"
      ],
      [
        "ll",
        "ustr"
      ],
      [
        "Ġbu",
        "ilt"
      ],
      [
        "Ġc",
        "ake"
      ],
      [
        "mb",
        "ers"
      ],
      [
        "Ġinst",
        "ead"
      ],
      [
        "uth",
        "or"
      ],
      [
        "Ġr",
        "ide"
      ],
      [
        "Ġwr",
        "itten"
      ],
      [
        "ounc",
        "il"
      ],
      [
        "Ġbuild",
        "ing"
      ],
      [
        "E",
        "x"
      ],
      [
        "Ġde",
        "fe"
      ],
      [
        "ĠL",
        "ondon"
      ],
      [
        "Ġany",
        "one"
      ],
      [
        "ĠP",
        "e"
      ],
      [
        "Ġt",
        "ired"
      ],
      [
        "res",
        "ent"
      ],
      [
        "Ġstand",
        "ing"
      ],
      [
        "Ġ19",
        "2"
      ],
      [
        "Ġhist",
        "ory"
      ],
      [
        "Ġc",
        "oup"
      ],
      [
        "ri",
        "gin"
      ],
      [
        "Ġcl",
        "os"
      ],
      [
        "b",
        "it"
      ],
      [
        "r",
        "on"
      ],
      [
        "Ġm",
        "ount"
      ],
      [
        "Ġl",
        "oud"
      ],
      [
        "then",
        "ed"
      ],
      [
        "an",
        "ge"
      ],
      [
        "Ġ201",
        "5"
      ],
      [
        "Ġgl",
        "ass"
      ],
      [
        "f",
        "er"
      ],
      [
        "Ġwee",
        "ks"
      ],
      [
        "Ġf",
        "le"
      ],
      [
        "o",
        "v"
      ],
      [
        "un",
        "icip"
      ],
      [
        "r",
        "or"
      ],
      [
        "Ġtr",
        "uck"
      ],
      [
        "Ġchar",
        "ac"
      ],
      [
        "Ġevery",
        "body"
      ],
      [
        "ĠH",
        "ouse"
      ],
      [
        "d",
        "at"
      ],
      [
        "Ġcont",
        "ro"
      ],
      [
        "r",
        "al"
      ],
      [
        "Ġthr",
        "ow"
      ],
      [
        "Ġp",
        "ark"
      ],
      [
        "ant",
        "a"
      ],
      [
        "ress",
        "ed"
      ],
      [
        "Ġ",
        "#"
      ],
      [
        "am",
        "b"
      ],
      [
        "Ġr",
        "u"
      ],
      [
        "Ġd",
        "iv"
      ],
      [
        "c",
        "ed"
      ],
      [
        "p",
        "ing"
      ],
      [
        "ĠP",
        "l"
      ],
      [
        "Ġab",
        "s"
      ],
      [
        "b",
        "out"
      ],
      [
        "Ġs",
        "ick"
      ],
      [
        "ĠC",
        "al"
      ],
      [
        "ĠW",
        "h"
      ],
      [
        "Ġwait",
        "ing"
      ],
      [
        "gr",
        "ound"
      ],
      [
        "Ġcir",
        "c"
      ],
      [
        "es",
        "tern"
      ],
      [
        "Ġh",
        "usband"
      ],
      [
        "ore",
        "d"
      ],
      [
        "ĠS",
        "outh"
      ],
      [
        "Ġl",
        "unch"
      ],
      [
        "end",
        "ed"
      ],
      [
        "Ġc",
        "ost"
      ],
      [
        "Ġcl",
        "im"
      ],
      [
        "Ġfor",
        "mer"
      ],
      [
        "Ġd",
        "anger"
      ],
      [
        "ĠD",
        "or"
      ],
      [
        "enc",
        "y"
      ],
      [
        "M",
        "aybe"
      ],
      [
        "em",
        "y"
      ],
      [
        ",",
        "'"
      ],
      [
        "Ġc",
        "op"
      ],
      [
        "Ġc",
        "ast"
      ],
      [
        "p",
        "ar"
      ],
      [
        "Ġs",
        "now"
      ],
      [
        "Ġb",
        "ow"
      ],
      [
        "ter",
        "day"
      ],
      [
        "Ġde",
        "ep"
      ],
      [
        "Ġ202",
        "0"
      ],
      [
        "ounc",
        "ed"
      ],
      [
        "Ġposs",
        "ible"
      ],
      [
        "Ġde",
        "p"
      ],
      [
        "Ġde",
        "velop"
      ],
      [
        "tern",
        "ational"
      ],
      [
        "c",
        "ri"
      ],
      [
        "Ġb",
        "reat"
      ],
      [
        "O",
        "f"
      ],
      [
        "Ġf",
        "ear"
      ],
      [
        "Ġp",
        "arent"
      ],
      [
        "Ġbro",
        "ke"
      ],
      [
        "Ġtre",
        "es"
      ],
      [
        "Ġsa",
        "ve"
      ],
      [
        "at",
        "t"
      ],
      [
        "A",
        "Y"
      ],
      [
        "it",
        "er"
      ],
      [
        "id",
        "ence"
      ],
      [
        "Ġk",
        "nock"
      ],
      [
        "Ġsupp",
        "ose"
      ],
      [
        "Ġ",
        "ve"
      ],
      [
        "Ġs",
        "and"
      ],
      [
        "il",
        "ed"
      ],
      [
        "t",
        "om"
      ],
      [
        "Ġreturn",
        "ed"
      ],
      [
        "Ġc",
        "and"
      ],
      [
        "he",
        "l"
      ],
      [
        "no",
        "on"
      ],
      [
        "st",
        "airs"
      ],
      [
        "k",
        "y"
      ],
      [
        "Ġsec",
        "ret"
      ],
      [
        "Ġri",
        "ver"
      ],
      [
        "Ġcertain",
        "ly"
      ],
      [
        "Ġt",
        "est"
      ],
      [
        "Ġt",
        "akes"
      ],
      [
        "Ġwrit",
        "ing"
      ],
      [
        "H",
        "AT"
      ],
      [
        "Ġf",
        "ur"
      ],
      [
        "ĠC",
        "ap"
      ],
      [
        "Ġsp",
        "ace"
      ],
      [
        "Ġteac",
        "her"
      ],
      [
        "Ġinde",
        "ed"
      ],
      [
        "Ġwar",
        "m"
      ],
      [
        "Ġcan",
        "not"
      ],
      [
        "Ġter",
        "ri"
      ],
      [
        "Ġfeel",
        "ing"
      ],
      [
        "L",
        "E"
      ],
      [
        "ĠJ",
        "ack"
      ],
      [
        "Ġen",
        "joy"
      ],
      [
        "ll",
        "o"
      ],
      [
        "Ġpl",
        "aces"
      ],
      [
        "Ġp",
        "ost"
      ],
      [
        "Ġwhat",
        "ever"
      ],
      [
        "Ġsw",
        "im"
      ],
      [
        "ĠMark",
        "y"
      ],
      [
        "Ġsu",
        "ccess"
      ],
      [
        "Ġsp",
        "ell"
      ],
      [
        "I",
        "llustr"
      ],
      [
        "Ġf",
        "ellow"
      ],
      [
        "om",
        "b"
      ],
      [
        "ĠO",
        "ne"
      ],
      [
        "Ġar",
        "ri"
      ],
      [
        "ul",
        "ation"
      ],
      [
        "Ġm",
        "iddle"
      ],
      [
        "Ġd",
        "addy"
      ],
      [
        "osp",
        "ital"
      ],
      [
        "W",
        "ith"
      ],
      [
        "Ġc",
        "ry"
      ],
      [
        "Ġstra",
        "ight"
      ],
      [
        "Ġc",
        "aught"
      ],
      [
        "U",
        "S"
      ],
      [
        "m",
        "aybe"
      ],
      [
        "Ġl",
        "uck"
      ],
      [
        "Ġwork",
        "s"
      ],
      [
        "i",
        "or"
      ],
      [
        "Ġst",
        "ri"
      ],
      [
        "ĠT",
        "r"
      ],
      [
        "ard",
        "en"
      ],
      [
        "ĠA",
        "N"
      ],
      [
        "Ġsupp",
        "osed"
      ],
      [
        "Ġpro",
        "gram"
      ],
      [
        "Ġd",
        "a"
      ],
      [
        "oo",
        "se"
      ],
      [
        "ĠA",
        "m"
      ],
      [
        "Ġpol",
        "ice"
      ],
      [
        "Illustr",
        "ation"
      ],
      [
        "Ġsp",
        "ec"
      ],
      [
        "Ġpartic",
        "ular"
      ],
      [
        "A",
        "fter"
      ],
      [
        "H",
        "ave"
      ],
      [
        "Ġp",
        "en"
      ],
      [
        "Ġl",
        "ow"
      ],
      [
        "Ġme",
        "mbers"
      ],
      [
        "Ġdis",
        "app"
      ],
      [
        "Ġprot",
        "ect"
      ],
      [
        "t",
        "ime"
      ],
      [
        "Ġv",
        "ict"
      ],
      [
        "Ġdec",
        "ided"
      ],
      [
        "ou",
        "l"
      ],
      [
        "th",
        "ough"
      ],
      [
        "ĠP",
        "er"
      ],
      [
        "Ġclot",
        "hes"
      ],
      [
        "I",
        "I"
      ],
      [
        "ĠS",
        "ha"
      ],
      [
        "Ġv",
        "ar"
      ],
      [
        "Ġpro",
        "du"
      ],
      [
        "Ġm",
        "unicip"
      ],
      [
        "Ġo",
        "per"
      ],
      [
        "Ġf",
        "it"
      ],
      [
        "id",
        "ay"
      ],
      [
        "Ġcoup",
        "le"
      ],
      [
        "Ġus",
        "ually"
      ],
      [
        "ĠT",
        "e"
      ],
      [
        "Ġj",
        "u"
      ],
      [
        "Ġv",
        "al"
      ],
      [
        "Ġtr",
        "uth"
      ],
      [
        "G",
        "et"
      ],
      [
        "c",
        "her"
      ],
      [
        "Ġb",
        "right"
      ],
      [
        "Ġd",
        "et"
      ],
      [
        "Ġlangu",
        "age"
      ],
      [
        "ig",
        "g"
      ],
      [
        "Ġdif",
        "fic"
      ],
      [
        "C",
        "h"
      ],
      [
        "u",
        "ri"
      ],
      [
        "Ã",
        "¡"
      ],
      [
        "as",
        "k"
      ],
      [
        "ĠI",
        "N"
      ],
      [
        "em",
        "pt"
      ],
      [
        "Ġar",
        "ms"
      ],
      [
        "ĠInd",
        "ian"
      ],
      [
        "o",
        "ver"
      ],
      [
        "Ġw",
        "ild"
      ],
      [
        "Ġevery",
        "one"
      ],
      [
        "ĠN",
        "orth"
      ],
      [
        "m",
        "o"
[...]
